<pad>	-0
<unk>	-1
<s>	-2
</s>	-3
__dishwasher	-4
__wimbledon	-5
__orleans	-6
__conditions	-7
__vitae	-8
__handed	-9
__celia	-10
__picturesque	-11
__windy	-12
__breakdancing	-13
__alert	-14
__meaning	-15
__bernie	-16
__economist	-17
__manicure	-18
__state-of-the-art	-19
__versions	-20
__gases	-21
__hot	-22
__chapped	-23
__paypal	-24
__lane	-25
__16.5	-26
__use	-27
__5,000	-28
__upon	-29
__98	-30
__seattle	-31
__shutter	-32
__require	-33
__investments	-34
__she	-35
__chicago	-36
__spending	-37
__highest	-38
__charities	-39
__nominated	-40
__debugged	-41
__vehicles	-42
__muslims	-43
__towels	-44
__unreasonable	-45
__grown	-46
__occupation	-47
__obscene	-48
__3.2	-49
__wei	-50
__illiterate	-51
__hydrated	-52
__jess	-53
__clippers	-54
__9:12	-55
__hostel	-56
__peters	-57
__careless	-58
__they	-59
__appointments	-60
__employment	-61
__neighbours	-62
__forecasters	-63
__shogun	-64
__oh	-65
__repay	-66
__traditional	-67
__mad	-68
__handbag	-69
__mccain	-70
__tai'an	-71
__acceptable	-72
__difficult	-73
__83	-74
__specialists	-75
__fatty	-76
__valuable	-77
__recycle	-78
__handy	-79
__housewife	-80
__whisky	-81
__say	-82
__exits	-83
__fairground	-84
__thanks	-85
__define	-86
__incorporate	-87
__figure	-88
__suggest	-89
__enterprise	-90
__poet	-91
__dictionary	-92
__issues	-93
__teller	-94
__pulled	-95
__call	-96
__including	-97
__developing	-98
__presentation	-99
__hated	-100
__stand	-101
__paint	-102
__granite	-103
__fog	-104
__competence	-105
__officiate	-106
__upgrade	-107
__invites	-108
__painkillers	-109
__finny	-110
__orders	-111
__quoting	-112
__librarian	-113
__badminton	-114
__wildly	-115
__question	-116
__indulgence	-117
__similar	-118
__passenger	-119
__funeral	-120
__showroom	-121
__1,200	-122
__portuguese	-123
__middle	-124
__pulmonary	-125
__feather	-126
__linens	-127
__cloudy	-128
__installation	-129
__aquarium	-130
__dropping	-131
__slim	-132
__lunch	-133
__achieved	-134
__tree	-135
__towns	-136
__expert	-137
__taylor	-138
__radiator	-139
__unskillful	-140
__quitting	-141
__iden	-142
__it	-143
__those	-144
__jades	-145
__bloody	-146
__nova	-147
__contribute	-148
__mink	-149
__starving	-150
__26	-151
__part-time	-152
__four-letter	-153
__monthly	-154
__cent	-155
__edition	-156
__fang	-157
__chills	-158
__alice	-159
__easy-going	-160
__trust	-161
__camphor	-162
__couldn	-163
__ribs	-164
__opened	-165
__colin	-166
__shares	-167
__forty-eight	-168
__complexion	-169
__placement	-170
__dreams	-171
__felt	-172
__tower	-173
__1205	-174
__father-in-law	-175
__ancient	-176
__freedom	-177
__institution	-178
__august	-179
__exterior	-180
__gettysburg	-181
__stacey	-182
__mastered	-183
__stir	-184
__supporting	-185
__australia	-186
__lack	-187
__packages	-188
__metres	-189
__mine	-190
__tianjin	-191
__nowadays	-192
__signed	-193
__real-time	-194
__surface	-195
__dream	-196
__muffin	-197
__concerns	-198
__buildings	-199
__-	-200
__weights	-201
__nod	-202
__feb	-203
__moisturizer	-204
__insisted	-205
__flexible	-206
__vouch	-207
__financial	-208
__1005	-209
__cant	-210
__bladder	-211
__blurry	-212
__just-in-time	-213
__mentioned	-214
__specialize	-215
__1.50	-216
__dick	-217
__hearing	-218
__oscars	-219
__secrets	-220
__sweater	-221
__well-matched	-222
__sandwiches	-223
__heck	-224
__restoring	-225
__proper	-226
__beer	-227
__minerals	-228
__bristle	-229
__eagles	-230
__photocopier	-231
__dd	-232
__absolute	-233
__guided	-234
__candy	-235
__surely	-236
__campaigns	-237
__teenagers	-238
__sleeping	-239
__might	-240
__thought	-241
__ordered	-242
__shoot	-243
__milton	-244
__selection	-245
__14,500	-246
__cooker	-247
__tastes	-248
__neglect	-249
__spray	-250
__formulate	-251
__cock	-252
__advisors	-253
__treatments	-254
__310	-255
__stations	-256
__brazilians	-257
__why	-258
__brands	-259
__assisting	-260
__ten-day	-261
__scrap	-262
__paycheck	-263
__canned	-264
__macintoshes	-265
__pee	-266
__texas	-267
__registered	-268
__&	-269
__taxes	-270
__thou	-271
__repairing	-272
__cousin	-273
__seemed	-274
__expanding	-275
__aisle	-276
__exchanged	-277
__braised	-278
__pile	-279
__tried	-280
__australian	-281
__dining	-282
__employed	-283
__mediocre	-284
__miser	-285
__processor	-286
__accomplishment	-287
__twist	-288
__cheers	-289
__surveyors	-290
__tinge	-291
__mourn	-292
__flags	-293
__below	-294
__cokes	-295
__integrity	-296
__3.9	-297
__stealing	-298
__550	-299
__customers	-300
__south	-301
__providence	-302
__obstacles	-303
__amend	-304
__pride	-305
__sticks	-306
__looted	-307
__quarreled	-308
__directors	-309
__younger	-310
__woo	-311
__john	-312
__glamour	-313
__inviting	-314
__mo	-315
__larger	-316
__capitol	-317
__summer	-318
__danger	-319
__eye	-320
__jan	-321
__broken	-322
__oral	-323
__374	-324
__celebrity	-325
__takes	-326
__properly	-327
__discover	-328
__1201	-329
__daddy	-330
__seeking	-331
__comes	-332
__source	-333
__70s	-334
__short-term	-335
__attitudes	-336
__restrictions	-337
__teach	-338
__bili	-339
__envy	-340
__performances	-341
__00	-342
__grapevine	-343
__features	-344
__jay	-345
__charged	-346
__filters	-347
__entire	-348
__reluctant	-349
__burglar	-350
__explain	-351
__ring	-352
__dizzy	-353
__eggplants	-354
__copywriters	-355
__virus	-356
__puddings	-357
__knife	-358
__44	-359
__merton	-360
__constipation	-361
__ahem	-362
__oxford	-363
__fooled	-364
__inherit	-365
__facial	-366
__practically	-367
__manage	-368
__valid	-369
__hottest	-370
__workweek	-371
__prospects	-372
__afternoon	-373
__charlie	-374
__pass	-375
__yuck	-376
__evacuate	-377
__li	-378
__ballet	-379
__picture	-380
__strides	-381
__surprising	-382
__dinners	-383
__clerical	-384
__universities	-385
__handicrafts	-386
__checkup	-387
__catalogs	-388
__abroad	-389
__canvas	-390
__confirm	-391
__belong	-392
__outskirts	-393
__nightly	-394
__value	-395
__cute	-396
__folding	-397
__riding	-398
__lift	-399
__outer	-400
__ready	-401
__avoided	-402
__owes	-403
__tight	-404
__controversial	-405
__believe	-406
__noon	-407
__earning	-408
__deciding	-409
__animals	-410
__15th	-411
__playoffs	-412
__okay	-413
__fluent	-414
__perspective	-415
__refunds	-416
__types	-417
__zhongguancun	-418
__allen	-419
__warrior	-420
__mexico	-421
__active	-422
__reputation	-423
__lst	-424
__34,000	-425
__teas	-426
__rage	-427
__1997	-428
__large-scale	-429
__predicting	-430
__greet	-431
__undergraduate	-432
__tyres	-433
__view	-434
__hanson	-435
__forever	-436
__spy	-437
__winnipeg	-438
__turnstile	-439
__instrument	-440
__ease	-441
__dirt	-442
__bananas	-443
__resources	-444
__thursday	-445
__carl	-446
__idiomatic	-447
__sit-ups	-448
__drains	-449
__soo	-450
__weather	-451
__establish	-452
__myself	-453
__dish	-454
__traditions	-455
__statue	-456
__helmet	-457
__guardrail	-458
__ken	-459
__pests	-460
__three-night	-461
__wilson	-462
__read	-463
__charles	-464
__hilton	-465
__inner	-466
__trace	-467
__maintain	-468
__swelling	-469
__miles	-470
__skeleton	-471
__inexpensive	-472
__techniques	-473
__withdrawing	-474
__believer	-475
__bangkok	-476
__320	-477
__loosen	-478
__claimed	-479
__quoted	-480
__members	-481
__singled	-482
__massage	-483
__www	-484
__packing	-485
__earrings	-486
__delhi	-487
__complete	-488
__30,000	-489
__caffeine	-490
__breaks	-491
__divorced	-492
__jewelry	-493
__smell	-494
__excess	-495
__scarf	-496
__pir	-497
__thirty-four	-498
__basic	-499
__humans	-500
__autographs	-501
__data	-502
__accommodate	-503
__sun	-504
__evict	-505
__macmillan	-506
__ketchup	-507
__carrying	-508
__350	-509
__worker	-510
__pizzas	-511
__thomas	-512
__exhausted	-513
__xi'an	-514
__mg	-515
__twiddling	-516
__pleasant	-517
__still	-518
__thursdays	-519
__schoolgirl	-520
__observation	-521
__likes	-522
__tone	-523
__elbow	-524
__incoming	-525
__madam	-526
__bar	-527
__rains	-528
__essay	-529
__emperors	-530
__ceilings	-531
__diplomas	-532
__kids	-533
__fringe	-534
__stupid	-535
__hamlet	-536
__steak	-537
__cooked	-538
__towing	-539
__vigor	-540
__loss	-541
__exercise	-542
__reservation	-543
__acc	-544
__serious	-545
__estate	-546
__marbles	-547
__microphone	-548
__brows	-549
__6,000	-550
__knock-out	-551
__cubicle	-552
__12c	-553
__fastest	-554
__barrels	-555
__typing	-556
__usc	-557
__1408	-558
__hurts	-559
__agrees	-560
__waltz	-561
__same	-562
__croissant	-563
__15	-564
__michelle	-565
__twenty-third	-566
__using	-567
__punch	-568
__fashion	-569
__precept	-570
__filthy	-571
__larry	-572
__championship	-573
__truck	-574
__felony	-575
__trolleys	-576
__compressor	-577
__advance	-578
__stray	-579
__library	-580
__kimchi	-581
__rooms	-582
__polar	-583
__practicing	-584
__winner	-585
__clue	-586
__um	-587
__enemy	-588
__pill	-589
__served	-590
__14	-591
__lake	-592
__fas	-593
__oath	-594
__psychological	-595
__carats	-596
__background	-597
__jordan	-598
__breakfast	-599
__nanjing	-600
__brother-in-law	-601
__enables	-602
__doors	-603
__xyz	-604
__napkins	-605
__route	-606
__nervous	-607
__orlando	-608
__numbered	-609
__dad	-610
__e-mails	-611
__accessories	-612
__withholding	-613
__seaside	-614
__foot	-615
__davis	-616
__eternal	-617
__julie	-618
__present	-619
__relocate	-620
__miss	-621
__5o	-622
__owed	-623
__preparation	-624
__stocks	-625
__imprisonment	-626
__postage	-627
__kalina	-628
__clunker	-629
__changes	-630
__fat	-631
__potato	-632
__harvested	-633
__o'clock	-634
__honest	-635
__held	-636
__rehearsals	-637
__theoretically	-638
__operation	-639
__speciality	-640
__dying	-641
__400	-642
__salami	-643
__lindsay	-644
__breast	-645
__cats	-646
__ill	-647
__irritable	-648
__bright	-649
__feels	-650
__global	-651
__experiment	-652
__kite	-653
__knowledgeable	-654
__warm-up	-655
__church	-656
__trick	-657
__.	-658
__done	-659
__plum	-660
__rink	-661
__pregnant	-662
__lavatory	-663
__tantrums	-664
__hotel	-665
__bumped	-666
__know	-667
__income	-668
__phd	-669
__different	-670
__checker	-671
__commitment	-672
__inspector	-673
__homeland	-674
__definitely	-675
__respectable	-676
__beginners	-677
__kilogram	-678
__tin	-679
__ted	-680
__heat	-681
__aging	-682
__expectations	-683
__octopus	-684
__airline	-685
__sandy	-686
__dances	-687
__o	-688
__complaint	-689
__putting	-690
__environmental	-691
__tissue	-692
__happening	-693
__century	-694
__lin	-695
__police	-696
__ignored	-697
__matriarch	-698
__pokes	-699
__passes	-700
__alabama	-701
__him	-702
__rally	-703
__return	-704
__compliments	-705
__shops	-706
__pleading	-707
__maine	-708
__plea	-709
__gibson	-710
__admissions	-711
__joann	-712
__dishonest	-713
__fluffy	-714
__12.15	-715
__participating	-716
__frequently	-717
__whammy	-718
__bakshi	-719
__export	-720
__gone	-721
__member	-722
__cosmetics	-723
__hole	-724
__what	-725
__flex	-726
__sights	-727
__moment	-728
__proposed	-729
__organs	-730
__latte	-731
__brunch	-732
__minutes	-733
__single	-734
__window	-735
__prisoner	-736
__although	-737
__387	-738
__employers	-739
__gang	-740
__listener	-741
__settle	-742
__comprehensive	-743
__disagrees	-744
__correct	-745
__slaves	-746
__minute	-747
__chosen	-748
__vince	-749
__discount	-750
__9	-751
__baths	-752
__rock	-753
__union	-754
__contain	-755
__pertinent	-756
__pointless	-757
__well-known	-758
__sides	-759
__flowery	-760
__unbearable	-761
__tour	-762
__aircraft	-763
__shape	-764
__projects	-765
__monroe	-766
__redesigning	-767
__authority	-768
__halloween	-769
__restocking	-770
__fluently	-771
__suck	-772
__)	-773
__3000	-774
__eighty	-775
__bills	-776
__eva	-777
__worn	-778
__listings	-779
__beat	-780
__tours	-781
__russia	-782
__disappear	-783
__detained	-784
__cozy	-785
__meting	-786
__rate	-787
__chest	-788
__artwork	-789
__territory	-790
__bore	-791
__lodging	-792
__elsewhere	-793
__taller	-794
__tariff	-795
__photos	-796
__tellin	-797
__6.9	-798
__jellyfish	-799
__goblet	-800
__carol	-801
__medical	-802
__handle	-803
__rubin	-804
__red-handed	-805
__canyon	-806
__tardiness	-807
__nv	-808
__destroys	-809
__mainstream	-810
__good-looking	-811
__1994	-812
__93	-813
__fried	-814
__deserved	-815
__visual	-816
__odds	-817
__invitation	-818
__23.65	-819
__issue	-820
__manages	-821
__federal	-822
__beautiful	-823
__act	-824
__peek	-825
__base	-826
__seated	-827
__nan	-828
__high-end	-829
__began	-830
__explicit	-831
__10:32	-832
__overtime	-833
__ltd	-834
__stepped	-835
__007	-836
__shockproof	-837
__break	-838
__receptionist	-839
__hidden	-840
__smiling	-841
__wouldn	-842
__bygones	-843
__oval	-844
__entry	-845
__ban	-846
__acknowledgements	-847
__expression	-848
__lemonade	-849
__gap	-850
__promised	-851
__tailored	-852
__private	-853
__mayor	-854
__expressions	-855
__cellar	-856
__homework	-857
__audi	-858
__hoe	-859
__keeps	-860
__mindless	-861
__ninety	-862
__2,100	-863
__buys	-864
__insurance	-865
__whether	-866
__sneakers	-867
__hollywood	-868
__test	-869
__peckham	-870
__neighbor	-871
__interviewee	-872
__automated	-873
__breakable	-874
__biographical	-875
__preferential	-876
__stubbornly	-877
__half	-878
__fault	-879
__7a	-880
__subscription	-881
__hopeful	-882
__resolve	-883
__bout	-884
__cappuccino	-885
__currents	-886
__joined	-887
__preference	-888
__needed	-889
__pasadena	-890
__airlines	-891
__magnolia	-892
__occasionally	-893
__gorge	-894
__sparkle	-895
__fourth	-896
__paraphernalia	-897
__bars	-898
__loud	-899
__sends	-900
__berlin	-901
__laundryman	-902
__apartment	-903
__las	-904
__thanksgiving	-905
__cyclical	-906
__smashing	-907
__reviewer	-908
__task	-909
__bracelet	-910
__guangzhou	-911
__finn	-912
__buses	-913
__renewing	-914
__fee	-915
__comments	-916
__grilling	-917
__hate	-918
__clyde	-919
__conrad	-920
__unfit	-921
__effect	-922
__teppanyaki	-923
__210	-924
__weeding	-925
__ball	-926
__sitcom	-927
__mayonnaise	-928
__hellen	-929
__stitches	-930
__yes	-931
__foolish	-932
__airways	-933
__—	-934
__racing	-935
__medication	-936
__switched	-937
__heels	-938
__fluctuations	-939
__interested	-940
__joan	-941
__guarantee	-942
__bottoms	-943
__confess	-944
__term	-945
__letting	-946
__twenty-nine	-947
__classroom	-948
__established	-949
__pairs	-950
__manager	-951
__waterproof	-952
__certificates	-953
__spite	-954
__sara	-955
__filming	-956
__maximum	-957
__well	-958
__explore	-959
__describe	-960
__postal	-961
__dock	-962
__resident	-963
__world-class	-964
__prices	-965
__terms	-966
__dress	-967
__settled	-968
__briefcase	-969
__275	-970
__sheriff	-971
__plums	-972
__wingman	-973
__draw	-974
__grateful	-975
__automatic	-976
__5:58	-977
__arriving	-978
__clients	-979
__battle	-980
__its	-981
__handling	-982
__shih	-983
__quantities	-984
__aid	-985
__negotiated	-986
__dated	-987
__400m	-988
__regrettably	-989
__1996	-990
__hurting	-991
__romantic	-992
__hello	-993
__pager	-994
__perm	-995
__dynamite	-996
__inserts	-997
__false	-998
__phs	-999
__guess	-1000
__peppermint	-1001
__microsoft	-1002
__steve	-1003
__finger	-1004
__spread	-1005
__blindly	-1006
__despise	-1007
__thick	-1008
__dealings	-1009
__refunded	-1010
__fillings	-1011
__socks	-1012
__analysis	-1013
__royalty	-1014
__cartons	-1015
__climate	-1016
__rudely	-1017
__exported	-1018
__entitled	-1019
__drives	-1020
__we	-1021
__amy	-1022
__greasy	-1023
__mentality	-1024
__accompany	-1025
__preoccupied	-1026
__produced	-1027
__emphasize	-1028
__skinny	-1029
__crack	-1030
__works	-1031
__ignoring	-1032
__cereal	-1033
__4.0	-1034
__itchy	-1035
__groovy	-1036
__handouts	-1037
__attacks	-1038
__listen	-1039
__greece	-1040
__boy	-1041
__200,000	-1042
__package	-1043
__grades	-1044
__qc	-1045
__joint	-1046
__ultraman	-1047
__pe	-1048
__mouth	-1049
__footage	-1050
__decided	-1051
__pepsi	-1052
__supportive	-1053
__12	-1054
__deborah	-1055
__initiative	-1056
__accept	-1057
__ahh	-1058
__process	-1059
__copies	-1060
__prescribe	-1061
__appeal	-1062
__m	-1063
__reward	-1064
__negotiation	-1065
__flower	-1066
__dew	-1067
__pop	-1068
__mice	-1069
__marcia	-1070
__honda	-1071
__bali	-1072
__big-screen	-1073
__appendix	-1074
__thong	-1075
__germany	-1076
__stiffed	-1077
__mick	-1078
__15,000	-1079
__cabinet	-1080
__altadena	-1081
__derived	-1082
__rising	-1083
__literatures	-1084
__combination	-1085
__jelly	-1086
__arrangement	-1087
__staircases	-1088
__dolma	-1089
__1150	-1090
__stipulations	-1091
__skate	-1092
__patiently	-1093
__engineering	-1094
__jersey	-1095
__follows	-1096
__specifically	-1097
__changed	-1098
__56	-1099
__picked	-1100
__regular	-1101
__700	-1102
__flexibility	-1103
__1	-1104
__calendar	-1105
__jerks	-1106
__headache	-1107
__mcneal	-1108
__firecrackers	-1109
__matt	-1110
__congratulate	-1111
__37	-1112
__kula	-1113
__fined	-1114
__matrix	-1115
__dozens	-1116
__possibly	-1117
__aqua	-1118
__consulting	-1119
__thursday.the	-1120
__metabolism	-1121
__wrap	-1122
__richardson	-1123
__stick	-1124
__wreck	-1125
__fangs	-1126
__ac	-1127
__conditioner	-1128
__steven	-1129
__prove	-1130
__pa	-1131
__daughter	-1132
__interests	-1133
__taught	-1134
__sleepyhead	-1135
__worrying	-1136
__copy	-1137
__ninth	-1138
__bags	-1139
__estimate	-1140
__overcoming	-1141
__bag	-1142
__someday	-1143
__windows	-1144
__welcome	-1145
__shoelaces	-1146
__cinnamon	-1147
__cigarettes	-1148
__artificial	-1149
__fitness	-1150
__shapes	-1151
__byron	-1152
__beans	-1153
__hatch	-1154
__brazilian	-1155
__awful	-1156
__frighten	-1157
__grown-up	-1158
__21st	-1159
__indoor	-1160
__7-11	-1161
__acceptance	-1162
__major	-1163
__stadium	-1164
__solve	-1165
__injured	-1166
__trading	-1167
__lottery	-1168
__interaction	-1169
__x	-1170
__appointment	-1171
__sorrow	-1172
__health-conscious	-1173
__hacks	-1174
__stone	-1175
__215,000	-1176
__put	-1177
__treadmill	-1178
__bach	-1179
__anklet	-1180
__growing	-1181
__slices	-1182
__kettle	-1183
__grocery	-1184
__paddling	-1185
__suffered	-1186
__canon	-1187
__1978	-1188
__uncle	-1189
__tasty	-1190
__suffers	-1191
__humorous	-1192
__medications	-1193
__variety	-1194
__broker	-1195
__take-home	-1196
__diana	-1197
__vacation	-1198
__surfing	-1199
__straightforward	-1200
__stockbreeding	-1201
__appropriately	-1202
__thrills	-1203
__ballot	-1204
__preview	-1205
__cuervo	-1206
__pathos	-1207
__discrepancies	-1208
__ed	-1209
__mixes	-1210
__lucie	-1211
__murderer	-1212
__flexibly	-1213
__sweetie	-1214
__affiliations	-1215
__attending	-1216
__centrum	-1217
__2,000	-1218
__immediate	-1219
__3:25	-1220
__43.20	-1221
__faces	-1222
__chef	-1223
__entertainers	-1224
__hero	-1225
__owners	-1226
__seasickness	-1227
__plans	-1228
__patient	-1229
__slight	-1230
__b2b	-1231
__36	-1232
__diary	-1233
__light	-1234
__settles	-1235
__preferably	-1236
__aside	-1237
__emerson	-1238
__frozen	-1239
__thom	-1240
__bring	-1241
__counter	-1242
__comers	-1243
__55	-1244
__capacities	-1245
__agnostic	-1246
__contract	-1247
__record	-1248
__lifestyles	-1249
__conversation	-1250
__unemployment	-1251
__absurd	-1252
__tefl	-1253
__cigarette	-1254
__hunt	-1255
__misheard	-1256
__path	-1257
__seems	-1258
__intolerant	-1259
__wing	-1260
__exclusively	-1261
__railway	-1262
__postcards	-1263
__shifter	-1264
__cheer	-1265
__subscribe	-1266
__fitted	-1267
__leftover	-1268
__collectibles	-1269
__sweeping	-1270
__funds	-1271
__transferred	-1272
__automatics	-1273
__delicate	-1274
__cranes	-1275
__hardcover	-1276
__purdy	-1277
__nanchang	-1278
__transformed	-1279
__iran	-1280
__town	-1281
__lucy	-1282
__mashed	-1283
__bothers	-1284
__liv	-1285
__tavern	-1286
__programmers	-1287
__salaries	-1288
__probably	-1289
__rail	-1290
__stages	-1291
__trial	-1292
__worthless	-1293
__ping	-1294
__atm	-1295
__suspect	-1296
__non-alcoholic	-1297
__dictation	-1298
__southern	-1299
__cure	-1300
__hates	-1301
__filled	-1302
__thesis	-1303
__on	-1304
__prawns	-1305
__altogether	-1306
__tries	-1307
__corner	-1308
__much	-1309
__village	-1310
__largest	-1311
__lamb	-1312
__customer	-1313
__all-round	-1314
__countertops	-1315
__corrosion	-1316
__shameful	-1317
__file	-1318
__dot	-1319
__amount	-1320
__hangzhou	-1321
__christina	-1322
__someplace	-1323
__ba	-1324
__originally	-1325
__gum	-1326
__stricter	-1327
__robbins	-1328
__cars	-1329
__measures	-1330
__balloons	-1331
__mcgrath	-1332
__biting	-1333
__thirteen	-1334
__compulsory	-1335
__shone	-1336
__eee	-1337
__competitors	-1338
__gross	-1339
__counterfeit	-1340
__enormous	-1341
__crook	-1342
__declared	-1343
__curtains	-1344
__characters	-1345
__guidance	-1346
__reform	-1347
__flu	-1348
__breaking	-1349
__103	-1350
__ripen	-1351
__preventive	-1352
__zodiac	-1353
__misunderstood	-1354
__was	-1355
__cancel	-1356
__theft	-1357
__lip	-1358
__russian	-1359
__simple	-1360
__vicky	-1361
__labour	-1362
__accountant	-1363
__current	-1364
__persons	-1365
__interrupt	-1366
__oatmeal	-1367
__festivals	-1368
__sleeve	-1369
__taj	-1370
__story	-1371
__workshops	-1372
__particularly	-1373
__fuzz	-1374
__plot	-1375
__curiosity	-1376
__yolk	-1377
__philosophy	-1378
__polishing	-1379
__grass	-1380
__cleveland	-1381
__smith	-1382
__natural	-1383
__normal	-1384
__stop	-1385
__rod	-1386
__bricks	-1387
__mount	-1388
__sting	-1389
__hell	-1390
__dinning	-1391
__miller	-1392
__nightmare	-1393
__cashew	-1394
__911	-1395
__simulates	-1396
__restaurants	-1397
__half-hour	-1398
__software	-1399
__tango	-1400
__shocked	-1401
__edwards	-1402
__posting	-1403
__jodi	-1404
__guest	-1405
__ensure	-1406
__hair	-1407
__duanwu	-1408
__lenses	-1409
__cafeteria	-1410
__asking	-1411
__ambulance	-1412
__places	-1413
__unsure	-1414
__lester	-1415
__nightlife	-1416
__hairstyles	-1417
__pears	-1418
__sick	-1419
__comedy	-1420
__130	-1421
__–	-1422
__excel	-1423
__tasteful	-1424
__monster	-1425
__barrier	-1426
__files	-1427
__moisturizers	-1428
__character	-1429
__event	-1430
__dramatically	-1431
__grind	-1432
__seen	-1433
__earlier	-1434
__rested	-1435
__fertilizer	-1436
__com	-1437
__doing	-1438
__fuss	-1439
__smoky	-1440
__b	-1441
__hip	-1442
__spoke	-1443
__seminars	-1444
__between	-1445
__yale	-1446
__harvard	-1447
__give	-1448
__meditate	-1449
__ensured	-1450
__nicole	-1451
__biased	-1452
__farley	-1453
__deeply	-1454
__information	-1455
__crossing	-1456
__gain	-1457
__oolong	-1458
__beauty	-1459
__hikes	-1460
__passport	-1461
__exhaust	-1462
__bravery	-1463
__essentially	-1464
__length	-1465
__protected	-1466
__starcraft	-1467
__closet	-1468
__wheels	-1469
__pant	-1470
__miserable	-1471
__88	-1472
__lisbon	-1473
__threw	-1474
__pen	-1475
__opens	-1476
__70	-1477
__grows	-1478
__stayed	-1479
__rockefeller	-1480
__commencement	-1481
__attraction	-1482
__belonged	-1483
__16th	-1484
__stamps	-1485
__cassette	-1486
__checks	-1487
__depressed	-1488
__blackboard	-1489
__bite	-1490
__comparison	-1491
__meant	-1492
__boiling	-1493
__accidentally	-1494
__espresso	-1495
__reproductions	-1496
__charges	-1497
__horse	-1498
__could	-1499
__rita	-1500
__seldom	-1501
__then	-1502
__hundreds	-1503
__dare	-1504
__specious	-1505
__token	-1506
__rubbing	-1507
__honesty	-1508
__former	-1509
__cookie	-1510
__ck	-1511
__korean	-1512
__three-day	-1513
__differs	-1514
__waking	-1515
__350-400	-1516
__root	-1517
__jumping	-1518
__dresser	-1519
__fake	-1520
__sore	-1521
__appliances	-1522
__steamed	-1523
__gel	-1524
__amusement	-1525
__conditioners	-1526
__horton	-1527
__carrots	-1528
__italy	-1529
__criminals	-1530
__applicant	-1531
__older	-1532
__posture	-1533
__restricted	-1534
__tables	-1535
__players	-1536
__lamp	-1537
__pit	-1538
__study	-1539
__donations	-1540
__tarantula	-1541
__2.48	-1542
__20s	-1543
__1970	-1544
__resigning	-1545
__banquet	-1546
__workers	-1547
__random	-1548
__body	-1549
__windfall	-1550
__flushes	-1551
__leslie	-1552
__do	-1553
__style	-1554
__agile	-1555
__driver	-1556
__mu	-1557
__disappointing	-1558
__systems	-1559
__trivet	-1560
__new	-1561
__inventors	-1562
__oooh	-1563
__individual	-1564
__pls	-1565
__vegetarians	-1566
__set	-1567
__positively	-1568
__apartments	-1569
__sarah	-1570
__ignore	-1571
__3rd	-1572
__prompted	-1573
__masters	-1574
__consider	-1575
__affair	-1576
__potatoes	-1577
__non-tariff	-1578
__teachers	-1579
__introduced	-1580
__mixing	-1581
__prescription	-1582
__part	-1583
__breakdance	-1584
__thieves	-1585
__level	-1586
__1:00	-1587
__philadelphia	-1588
__dragging	-1589
__footsteps	-1590
__though	-1591
__twice	-1592
__pamper	-1593
__employs	-1594
__frustrated	-1595
__associates	-1596
__quiet	-1597
__gardening	-1598
__overpriced	-1599
__macao	-1600
__disco	-1601
__evenly	-1602
__blind	-1603
__potential	-1604
__pump	-1605
__environmentalist	-1606
__sexual	-1607
__causing	-1608
__neil	-1609
__valleys	-1610
__cologne	-1611
__international	-1612
__ln	-1613
__wasn	-1614
__complain	-1615
__hickory	-1616
__drug	-1617
__things	-1618
__requested	-1619
__products	-1620
__lap	-1621
__bin	-1622
__reunion	-1623
__cents	-1624
__checked	-1625
__idiom	-1626
__500,000	-1627
__a4	-1628
__span	-1629
__negotiate	-1630
__sik	-1631
__sharpeners	-1632
__newspapers	-1633
__meng	-1634
__reports	-1635
__furniture	-1636
__breathe	-1637
__coma	-1638
__grant	-1639
__hey	-1640
__chess	-1641
__satisfactory	-1642
__andrew	-1643
__family	-1644
__birdies	-1645
__interned	-1646
__weeks	-1647
__assistances	-1648
__ugly	-1649
__wider	-1650
__cops	-1651
__how	-1652
__football	-1653
__basketball	-1654
__emerge	-1655
__case	-1656
__martin	-1657
__209	-1658
__mendy	-1659
__italia	-1660
__oj	-1661
__cultural	-1662
__saturdays	-1663
__stomachache	-1664
__d	-1665
__capacity	-1666
__chances	-1667
__venice	-1668
__loses	-1669
__plane	-1670
__diet	-1671
__peaches	-1672
__judges	-1673
__recreation	-1674
__x-ray	-1675
__friend	-1676
__physically	-1677
__chanel	-1678
__rap	-1679
__shrink	-1680
__track	-1681
__practiced	-1682
__arcs	-1683
__ballroom	-1684
__bathroom	-1685
__instructor	-1686
__guitar	-1687
__meeting	-1688
__unforgettable	-1689
__lt	-1690
__queer	-1691
__billboard	-1692
__dynasty	-1693
__conned	-1694
__lowest	-1695
__paperwork	-1696
__701	-1697
__pronounced	-1698
__donating	-1699
__6.0	-1700
__sanctuary	-1701
__inseam	-1702
__committed	-1703
__severely	-1704
__crime	-1705
__openly	-1706
__promising	-1707
__blend	-1708
__rumor	-1709
__kangaroo	-1710
__mc	-1711
__ramp	-1712
__animated	-1713
__permit	-1714
__popcorn	-1715
__yelled	-1716
__firework	-1717
__bonus	-1718
__bear	-1719
__bends	-1720
__jin	-1721
__focus	-1722
__foots	-1723
__mary	-1724
__kfc	-1725
__drowning	-1726
__waiter	-1727
__gotten	-1728
__blond	-1729
__bosses	-1730
__untill	-1731
__awarded	-1732
__crisis	-1733
__three-year-old	-1734
__shuttle	-1735
__try	-1736
__lawsons	-1737
__tim	-1738
__tired	-1739
__spill	-1740
__thrift	-1741
__xi	-1742
__reminds	-1743
__apprentice	-1744
__jam	-1745
__efficient	-1746
__talents	-1747
__plead	-1748
__phone	-1749
__sold	-1750
__unrealistic	-1751
__neighborly	-1752
__yep	-1753
__simplest	-1754
__crisps	-1755
__rick	-1756
__damn	-1757
__patterns	-1758
__practical	-1759
__slipped	-1760
__cross	-1761
__toilets	-1762
__pao	-1763
__response	-1764
__tulips	-1765
__camel	-1766
__informative	-1767
__trimmed	-1768
__city	-1769
__recipes	-1770
__five-day	-1771
__math	-1772
__discuss	-1773
__nationalities	-1774
__owns	-1775
__c	-1776
__falling	-1777
__scope	-1778
__shame	-1779
__honking	-1780
__vertical	-1781
__freckles	-1782
__shiny	-1783
__even	-1784
__remit	-1785
__paperback	-1786
__contributed	-1787
__saw	-1788
__generous	-1789
__blake	-1790
__dammit	-1791
__marilyn	-1792
__middle-sized	-1793
__state	-1794
__aa	-1795
__apology	-1796
__midnight	-1797
__train	-1798
__muffs	-1799
__feudal	-1800
__stranger	-1801
__kicked	-1802
__invalid	-1803
__landed	-1804
__attorney	-1805
__rebuilding	-1806
__image	-1807
__connection	-1808
__looks	-1809
__linen	-1810
__sleek	-1811
__keeping	-1812
__commute	-1813
__conniving	-1814
__relaxation	-1815
__!	-1816
__guests	-1817
__howard	-1818
__attract	-1819
__halls	-1820
__highchair	-1821
__freezing	-1822
__murderers	-1823
__upcoming	-1824
__varnish	-1825
__deli	-1826
__sprints	-1827
__baron	-1828
__sideburns	-1829
__katie	-1830
__cakes	-1831
__consolation	-1832
__xerox	-1833
__exquisite	-1834
__fjords	-1835
__joking	-1836
__came	-1837
__equipment	-1838
__platinum	-1839
__a120	-1840
__info	-1841
__345	-1842
__exercises	-1843
__old-fashioned	-1844
__girly	-1845
__dui	-1846
__chilli	-1847
__bookshop	-1848
__academic	-1849
__copernicus	-1850
__seasoning	-1851
__healed	-1852
__mess	-1853
__production	-1854
__favorite	-1855
__sanyuan	-1856
__cottage	-1857
__joggers	-1858
__happily	-1859
__bay	-1860
__leftovers	-1861
__dig	-1862
__blossom	-1863
__bilingual	-1864
__cardboard	-1865
__vase	-1866
__saints	-1867
__countryside	-1868
__broad	-1869
__via	-1870
__geography	-1871
__outlook	-1872
__withdrew	-1873
__rebecca	-1874
__dark-colored	-1875
__mascara	-1876
__fascinated	-1877
__negotiating	-1878
__manly	-1879
__timing	-1880
__e	-1881
__whatever	-1882
__’	-1883
__bait	-1884
__showed	-1885
__bracelets	-1886
__concoction	-1887
__stones	-1888
__25th	-1889
__firstly	-1890
__kickboxing	-1891
__function	-1892
__import	-1893
__ability	-1894
__anshan	-1895
__websites	-1896
__iba	-1897
__would	-1898
__shortcut	-1899
__fixing	-1900
__ultimate	-1901
__theatre	-1902
__investigate	-1903
__injuries	-1904
__successfully	-1905
__itching	-1906
__loves	-1907
__terry	-1908
__ethic	-1909
__noisy	-1910
__flights	-1911
__editing	-1912
__prejudice	-1913
__holidays	-1914
__forks	-1915
__beta	-1916
__throw	-1917
__croakers	-1918
__39.99	-1919
__0.5	-1920
__mabel	-1921
__textbooks	-1922
__opportunities	-1923
__blank	-1924
__complicated	-1925
__ha-ha	-1926
__introductory	-1927
__ate	-1928
__talked	-1929
__pick	-1930
__5.00	-1931
__e-commerce	-1932
__84	-1933
__clams	-1934
__dating	-1935
__padding	-1936
__wi-fi	-1937
__jennings	-1938
__stare	-1939
__teenager	-1940
__graves	-1941
__permits	-1942
__reduction	-1943
__compressed	-1944
__refund	-1945
__curtain	-1946
__founded	-1947
__chase	-1948
__ethics	-1949
__circulation	-1950
__european	-1951
__promoted	-1952
__11:55	-1953
__7,000	-1954
__decorated	-1955
__wakening	-1956
__receipts	-1957
__trait	-1958
__manufacturing	-1959
__coasts	-1960
__bulky	-1961
__carte	-1962
__vise	-1963
__country	-1964
__scary	-1965
__registry	-1966
__finish	-1967
__working	-1968
__stately	-1969
__stays	-1970
__anyone	-1971
__pair	-1972
__briefly	-1973
__excursions	-1974
__18	-1975
__pumpkin	-1976
__prescribed	-1977
__trouble	-1978
__reservations	-1979
__95	-1980
__bucks	-1981
__dyson	-1982
__meanwhile	-1983
__stereo	-1984
__understanding	-1985
__bleeding	-1986
__snake	-1987
__mid-term	-1988
__chinatown	-1989
__usee	-1990
__unexcused	-1991
__9.5	-1992
__reruns	-1993
__muscles	-1994
__jogging	-1995
__believing	-1996
__arrived	-1997
__intellectual	-1998
__pronounce	-1999
__proteins	-2000
__once	-2001
__glutinous	-2002
__exclusive	-2003
__arranging	-2004
__angelica	-2005
__129	-2006
__toilet	-2007
__sleep	-2008
__ran	-2009
__career	-2010
__1818	-2011
__wiser	-2012
__5pm	-2013
__includes	-2014
__intention	-2015
__ricky	-2016
__fuel	-2017
__pretend	-2018
__lunchtime	-2019
__fifty	-2020
__sewed	-2021
__capability	-2022
__time	-2023
__god	-2024
__pardon	-2025
__district	-2026
__breathing	-2027
__lounge	-2028
__output	-2029
__folk	-2030
__tarts	-2031
__asthma	-2032
__ought	-2033
__gourmet	-2034
__25,000	-2035
__skipping	-2036
__u	-2037
__sugar	-2038
__apparently	-2039
__curse	-2040
__hours	-2041
__usd	-2042
__isaiah	-2043
__gravy	-2044
__noble	-2045
__jazz	-2046
__japan	-2047
__refueling	-2048
__1867	-2049
__station	-2050
__blinds	-2051
__meats	-2052
__strokes	-2053
__9th	-2054
__page	-2055
__bingo	-2056
__sweet	-2057
__tags	-2058
__happier	-2059
__subway	-2060
__unexpected	-2061
__coals	-2062
__trap	-2063
__material	-2064
__bobby	-2065
__no-smoking	-2066
__choosing	-2067
__attendants	-2068
__anymore	-2069
__description	-2070
__shown	-2071
__analyst	-2072
__led	-2073
__requisition	-2074
__bellboy	-2075
__fast	-2076
__considerations	-2077
__smack	-2078
__running	-2079
__online	-2080
__locked	-2081
__1308	-2082
__stage	-2083
__inevitable	-2084
__universe	-2085
__lakeside	-2086
__stinks	-2087
__convention	-2088
__blocks	-2089
__drown	-2090
__fittings	-2091
__minuets	-2092
__reported	-2093
__beijing	-2094
__thicker	-2095
__realplayer	-2096
__other	-2097
__lu	-2098
__phones	-2099
__express	-2100
__buttons	-2101
__1425	-2102
__invite	-2103
__mild	-2104
__refer	-2105
__hungry	-2106
__blends	-2107
__hug	-2108
__arden	-2109
__frame	-2110
__mineral	-2111
__stopped	-2112
__galileo	-2113
__naturally	-2114
__shampoo	-2115
__tea	-2116
__dollars	-2117
__worst	-2118
__ordinarily	-2119
__targeting	-2120
__stockholder	-2121
__tussaud	-2122
__brooklyn	-2123
__1/10	-2124
__touch	-2125
__proposals	-2126
__talking	-2127
__golden	-2128
__two-year	-2129
__criticized	-2130
__moroccan	-2131
__sky	-2132
__wetted	-2133
__nora	-2134
__trip	-2135
__lpt	-2136
__cultured	-2137
__quipu	-2138
__115	-2139
__curves	-2140
__placing	-2141
__2001	-2142
__leaf	-2143
__supporter	-2144
__willis	-2145
__economy	-2146
__deposits	-2147
__opposite	-2148
__bruise	-2149
__chemistry	-2150
__obligated	-2151
__suzhou	-2152
__curly	-2153
__ib	-2154
__dacron	-2155
__rats	-2156
__excited	-2157
__cape	-2158
__inspired	-2159
__y	-2160
__clues	-2161
__very	-2162
__ma'am	-2163
__congestion	-2164
__cunning	-2165
__1.7	-2166
__officers	-2167
__owner	-2168
__yeas	-2169
__elective	-2170
__promote	-2171
__writing	-2172
__bathrooms	-2173
__everybody	-2174
__references	-2175
__refers	-2176
__eskimos	-2177
__woods	-2178
__teahouses	-2179
__zealand	-2180
__limitations	-2181
__costumes	-2182
__annual	-2183
__ve	-2184
__tuesdays	-2185
__message	-2186
__inventive	-2187
__cheng	-2188
__hard-working	-2189
__sprite	-2190
__no	-2191
__famous	-2192
__daylight	-2193
__sizes	-2194
__forty-five	-2195
__hainan	-2196
__phoned	-2197
__assembly	-2198
__zoo	-2199
__tranquility	-2200
__spectacles	-2201
__smarty	-2202
__volleyball	-2203
__every	-2204
__6pm	-2205
__stairs	-2206
__inland	-2207
__purposes	-2208
__101-98	-2209
__vacant	-2210
__debt	-2211
__ally	-2212
__limo	-2213
__vienna	-2214
__detention	-2215
__ambition	-2216
__tad	-2217
__rollerblading	-2218
__significant	-2219
__ay	-2220
__ambassadors	-2221
__dai	-2222
__hathaway	-2223
__pressing	-2224
__point	-2225
__headquarters	-2226
__patriots	-2227
__slip	-2228
__eu	-2229
__height	-2230
__second	-2231
__scraping	-2232
__dentist	-2233
__saddle	-2234
__devote	-2235
__thrilled	-2236
__ref	-2237
__adult	-2238
__juicy	-2239
__suitcase	-2240
__pork	-2241
__deserve	-2242
__result	-2243
__exporters	-2244
__seed	-2245
__kennedy	-2246
__chart	-2247
__sheet	-2248
__step-son	-2249
__dj	-2250
__churches	-2251
__subsidies	-2252
__continental	-2253
__slacker	-2254
__required	-2255
__prizes	-2256
__notices	-2257
__decisions	-2258
__exist	-2259
__described	-2260
__wonton	-2261
__retired	-2262
__lied	-2263
__rip-off	-2264
__knows	-2265
__remote	-2266
__salesperson	-2267
__dishwashing	-2268
__accent	-2269
__pillow	-2270
__scanner	-2271
__til	-2272
__killer	-2273
__well-built	-2274
__‘	-2275
__pure	-2276
__gate	-2277
__offer	-2278
__sample	-2279
__suits	-2280
__mostly	-2281
__koala	-2282
__something	-2283
__jewellery	-2284
__3.60	-2285
__rag	-2286
__supplement	-2287
__cliffs	-2288
__example	-2289
__customs	-2290
__writes	-2291
__tenants	-2292
__nephew	-2293
__johnny	-2294
__bids	-2295
__guyon	-2296
__saved	-2297
__unconstrained	-2298
__subsidiaries	-2299
__shave	-2300
__snowmaking	-2301
__affairs	-2302
__polaroid	-2303
__3-5	-2304
__utilize	-2305
__1986	-2306
__tournaments	-2307
__backups	-2308
__talent	-2309
__robots	-2310
__settings	-2311
__teal	-2312
__depend	-2313
__anxious	-2314
__left-hand	-2315
__wearing	-2316
__tweed	-2317
__bedrooms	-2318
__stars	-2319
__particular	-2320
__actually	-2321
__belgium	-2322
__earphone	-2323
__maid	-2324
__holiday	-2325
__shouldn	-2326
__trade	-2327
__wagon	-2328
__entrees	-2329
__beth	-2330
__minimum-security	-2331
__rules	-2332
__quizzes	-2333
__cords	-2334
__formula	-2335
__rejects	-2336
__vocation	-2337
__atheistic	-2338
__reviews	-2339
__reveals	-2340
__forecast	-2341
__probation	-2342
__concretely	-2343
__write	-2344
__earned	-2345
__chestnut	-2346
__kevin	-2347
__recommendations	-2348
__burner	-2349
__anne	-2350
__wishes	-2351
__final	-2352
__unfortunate	-2353
__bitten	-2354
__marys	-2355
__side-by-side	-2356
__archaeologist	-2357
__seven	-2358
__golfer	-2359
__sunrise	-2360
__face	-2361
__detectives	-2362
__behind	-2363
__erased	-2364
__marinate	-2365
__runs	-2366
__thrillers	-2367
__backpack	-2368
__courage	-2369
__travelled	-2370
__mono	-2371
__action	-2372
__mafia	-2373
__memorize	-2374
__custody	-2375
__acid	-2376
__retail	-2377
__hr	-2378
__cooperating	-2379
__catching	-2380
__uncles	-2381
__naps	-2382
__yours	-2383
__inch	-2384
__yew	-2385
__chapters	-2386
__beverage	-2387
__shark	-2388
__contest	-2389
__passports	-2390
__8.50	-2391
__approval	-2392
__lots	-2393
__freshest	-2394
__drank	-2395
__broadway	-2396
__corresponding	-2397
__simply	-2398
__illnesses	-2399
__sound	-2400
__tires	-2401
__fo	-2402
__dubbed	-2403
__accomplishments	-2404
__cinema	-2405
__relationship	-2406
__punished	-2407
__examples	-2408
__mainly	-2409
__qualities	-2410
__added	-2411
__swimming	-2412
__gump	-2413
__promotional	-2414
__breads	-2415
__layover	-2416
__contributions	-2417
__murdered	-2418
__skips	-2419
__david	-2420
__groundwater	-2421
__bidding	-2422
__cheat	-2423
__remembers	-2424
__officer	-2425
__learning	-2426
__traffic	-2427
__garage	-2428
__shortly	-2429
__dr	-2430
__dahl	-2431
__herb	-2432
__beneficiary	-2433
__sounds	-2434
__mi	-2435
__die	-2436
__value-added	-2437
__,	-2438
__qualification	-2439
__conclusion	-2440
__win	-2441
__cotton	-2442
__diablo	-2443
__lifts	-2444
__infected	-2445
__holland	-2446
__lotion	-2447
__habit	-2448
__houston	-2449
__claiming	-2450
__thirty-five	-2451
__rid	-2452
__produce	-2453
__cashier	-2454
__kenmore	-2455
__snooze	-2456
__unlikely	-2457
__dressy	-2458
__explosive	-2459
__buying	-2460
__watering	-2461
__filed	-2462
__shoulders	-2463
__fire	-2464
__curvy	-2465
__extremely	-2466
__vender	-2467
__lady	-2468
__loved	-2469
__handled	-2470
__played	-2471
__axis	-2472
__ad	-2473
__brough	-2474
__vacate	-2475
__darn	-2476
__attacking	-2477
__nervousness	-2478
__sunday	-2479
__17	-2480
__percentages	-2481
__provided	-2482
__before	-2483
__touched	-2484
__goal-oriented	-2485
__salmon	-2486
__advancements	-2487
__convincing	-2488
__urgent	-2489
__cleaner	-2490
__accommodation	-2491
__cemetery	-2492
__columns	-2493
__researching	-2494
__corporations	-2495
__regarding	-2496
__processing	-2497
__13	-2498
__chaoyang	-2499
__wangfujing	-2500
__bushes	-2501
__courteous	-2502
__cautious	-2503
__requirements	-2504
__lead	-2505
__heading	-2506
__unaware	-2507
__subscriber	-2508
__2:00	-2509
__warmth	-2510
__expenditure	-2511
__aright	-2512
__warmed	-2513
__cif	-2514
__brokers	-2515
__reese	-2516
__specialty	-2517
__retire	-2518
__satchel	-2519
__achieve	-2520
__two-bedroom	-2521
__whom	-2522
__assumed	-2523
__identifies	-2524
__bologna	-2525
__classifieds	-2526
__education	-2527
__factories	-2528
__familiarity	-2529
__thinks	-2530
__studied	-2531
__apart	-2532
__lisa	-2533
__20	-2534
__explains	-2535
__dong-gun	-2536
__kaohsiung	-2537
__ads	-2538
__than	-2539
__tomato	-2540
__headings	-2541
__tracy	-2542
__have	-2543
__abbey	-2544
__carried	-2545
__seven-day	-2546
__educating	-2547
__maintaining	-2548
__pajamas	-2549
__remittance	-2550
__flat	-2551
__sponge	-2552
__wallet	-2553
__tools	-2554
__promotions	-2555
__applied	-2556
__kathy	-2557
__puberty	-2558
__great	-2559
__asap	-2560
__cinematography	-2561
__salesgirl	-2562
__layoff	-2563
__ex	-2564
__oily	-2565
__jog	-2566
__auto	-2567
__laugh	-2568
__faiths	-2569
__nose	-2570
__masques	-2571
__thai	-2572
__cheerful	-2573
__adjacent	-2574
__cleared	-2575
__nor	-2576
__order	-2577
__allowance	-2578
__peach	-2579
__sixty	-2580
__schoolmates	-2581
__beautifully	-2582
__farm	-2583
__sentenced	-2584
__261	-2585
__faucet	-2586
__one-to-one	-2587
__commit	-2588
__completion	-2589
__barker	-2590
__tenant	-2591
__pre-paid	-2592
__vote	-2593
__woke	-2594
__eloquent	-2595
__learned	-2596
__lakeshore	-2597
__pun	-2598
__downloading	-2599
__toys	-2600
__president	-2601
__cheeseburger	-2602
__lists	-2603
__fare	-2604
__itemized	-2605
__activity	-2606
__dunked	-2607
__substitute	-2608
__beauties	-2609
__pull	-2610
__foreign	-2611
__mien	-2612
__sedentary	-2613
__travel	-2614
__1995	-2615
__minneapolis	-2616
__ah	-2617
__layout	-2618
__cashed	-2619
__high-pressure	-2620
__tent	-2621
__chilly	-2622
__homecoming	-2623
__creep	-2624
__rye	-2625
__wow	-2626
__cantaloupe	-2627
__stockholders	-2628
__brightness	-2629
__mm	-2630
__neat	-2631
__incorrect	-2632
__lightweight	-2633
__needles	-2634
__lourdes	-2635
__talk	-2636
__nyu	-2637
__related	-2638
__2000	-2639
__gila	-2640
__crab	-2641
__hilarious	-2642
__belts	-2643
__worldwide	-2644
__2.26	-2645
__hefty	-2646
__concerts	-2647
__criticize	-2648
__authorities	-2649
__840	-2650
__store	-2651
__planting	-2652
__sent	-2653
__disposal	-2654
__10,000	-2655
__doubt	-2656
__padded	-2657
__geek	-2658
__hauled	-2659
__island	-2660
__entrance	-2661
__symptoms	-2662
__requirement	-2663
__beijingers	-2664
__marry	-2665
__baggage	-2666
__transparency	-2667
__eviction	-2668
__steps	-2669
__evidences	-2670
__divided	-2671
__distances	-2672
__en	-2673
__relation	-2674
__hired	-2675
__suppose	-2676
__rivers	-2677
__transferring	-2678
__proficiency	-2679
__stores	-2680
__windshield	-2681
__allows	-2682
__hotspots	-2683
__consume	-2684
__4p	-2685
__amounts	-2686
__participate	-2687
__roller	-2688
__cabs	-2689
__wings	-2690
__guaranteed	-2691
__cooling	-2692
__internet-based	-2693
__ru	-2694
__cyprus	-2695
__follow	-2696
__annually	-2697
__randy	-2698
__hop	-2699
__drunk	-2700
__boiled	-2701
__sector	-2702
__aspects	-2703
__pretends	-2704
__nutritious	-2705
__step-mother	-2706
__distance	-2707
__marinated	-2708
__mischief	-2709
__covers	-2710
__beaten	-2711
__elections	-2712
__upwards	-2713
__factory	-2714
__server	-2715
__marked	-2716
__gotcha	-2717
__setting	-2718
__eastern	-2719
__additional	-2720
__lodge	-2721
__2300	-2722
__bone	-2723
__instruction	-2724
__located	-2725
__loose	-2726
__kept	-2727
__edward	-2728
__disposable	-2729
__consignment	-2730
__affordable	-2731
__cannot	-2732
__t0	-2733
__update	-2734
__embassy	-2735
__shift	-2736
__refugees	-2737
__hideous	-2738
__priority	-2739
__clown	-2740
__aesthetic	-2741
__renter	-2742
__joints	-2743
__supreme	-2744
__scratching	-2745
__protons	-2746
__apply	-2747
__judy	-2748
__513	-2749
__terrified	-2750
__sellers	-2751
__person	-2752
__thirty	-2753
__periodicals	-2754
__press	-2755
__assigned	-2756
__dimes	-2757
__collar	-2758
__mirror	-2759
__commend	-2760
__drinks	-2761
__markets	-2762
__studying	-2763
__3.8	-2764
__fix	-2765
__wyatt	-2766
__develops	-2767
__top	-2768
__block	-2769
__likewise	-2770
__obnoxious	-2771
__irritated	-2772
__golf	-2773
__payment	-2774
__impression	-2775
__sank	-2776
__credits	-2777
__difference	-2778
__shop	-2779
__simmons	-2780
__peking	-2781
__ukraine	-2782
__hotspot	-2783
__hide	-2784
__kodak	-2785
__ten-year	-2786
__electrons	-2787
__diploma	-2788
__nature	-2789
__movement	-2790
__shaking	-2791
__fingers	-2792
__lying	-2793
__movers	-2794
__refrigerator	-2795
__expect	-2796
__chatting	-2797
__burd	-2798
__crashed	-2799
__english-speaking	-2800
__tor	-2801
__tapestry	-2802
__valley	-2803
__respected	-2804
__fanny	-2805
__exiting	-2806
__rained	-2807
__3-4	-2808
__finished	-2809
__novel	-2810
__hit	-2811
__disqualified	-2812
__stain	-2813
__bookshelf	-2814
__dyed	-2815
__recorders	-2816
__out	-2817
__coughed	-2818
__birthday	-2819
__vacuum	-2820
__eyelashes	-2821
__up-to-date	-2822
__parker	-2823
__publications	-2824
__bugs	-2825
__built-in	-2826
__letters	-2827
__kilometers	-2828
__trainer	-2829
__routes	-2830
__stove	-2831
__cloning	-2832
__wealthier	-2833
__gimlet	-2834
__earn	-2835
__mezzanine	-2836
__kilometres	-2837
__veggie	-2838
__stalking	-2839
__words	-2840
__feverish	-2841
__sorry	-2842
__wine	-2843
__cover	-2844
__sheer	-2845
__stepping	-2846
__overhead	-2847
__objectives	-2848
__appreciate	-2849
__accounting	-2850
__celtic	-2851
__%	-2852
__browser	-2853
__illegal	-2854
__goal	-2855
__spying	-2856
__electrician	-2857
__sooner	-2858
__pavarotti	-2859
__innocent	-2860
__bulletin	-2861
__gucci	-2862
__tracks	-2863
__yi	-2864
__sec	-2865
__updated	-2866
__hoar	-2867
__gray	-2868
__allowed	-2869
__dead	-2870
__highway	-2871
__programs	-2872
__earns	-2873
__co-operation	-2874
__accepting	-2875
__sized	-2876
__sweaters	-2877
__gansu	-2878
__respect	-2879
__sour	-2880
__gentlemen	-2881
__wo	-2882
__seventieth	-2883
__pans	-2884
__having	-2885
__infrastructure	-2886
__bases	-2887
__tape	-2888
__laughed	-2889
__storage	-2890
__encourage	-2891
__environment	-2892
__options	-2893
__processed	-2894
__direction	-2895
__interpretation	-2896
__7:00	-2897
__1419	-2898
__taking	-2899
__written	-2900
__thumbed	-2901
__stains	-2902
__receive	-2903
__7:30	-2904
__itinerary	-2905
__lazy	-2906
__writers	-2907
__organized	-2908
__areas	-2909
__smoke	-2910
__makers	-2911
__re-examination	-2912
__trim	-2913
__forgotten	-2914
__tee	-2915
__rash	-2916
__inspect	-2917
__stacy	-2918
__zeta-jones	-2919
__refused	-2920
__delay	-2921
__70,000	-2922
__cuff	-2923
__shoots	-2924
__unreliable	-2925
__seem	-2926
__remuneration	-2927
__sister	-2928
__backgrounds	-2929
__happy	-2930
__7.20	-2931
__pressed	-2932
__suspects	-2933
__guide	-2934
__freak	-2935
__nation	-2936
__sanitary	-2937
__unusually	-2938
__crust	-2939
__absolutely	-2940
__outgoing	-2941
__skateboarding	-2942
__debate	-2943
__dinner	-2944
__collars	-2945
__drain	-2946
__brother	-2947
__regretting	-2948
__concert	-2949
__safe	-2950
__diced	-2951
__streets	-2952
__passed	-2953
__placed	-2954
__mathematician	-2955
__anniversaries	-2956
__confused	-2957
__skill	-2958
__unbelievable	-2959
__lakers	-2960
__versa	-2961
__planes	-2962
__strength	-2963
__gaps	-2964
__caesar	-2965
__janey	-2966
__answered	-2967
__housing	-2968
__interpreter	-2969
__high-tech	-2970
__sake	-2971
__ere	-2972
__reeves	-2973
__9-11	-2974
__thirty-two	-2975
__documentary	-2976
__skillful	-2977
__robust	-2978
__up	-2979
__barack	-2980
__dreadful	-2981
__conversations	-2982
__briefs	-2983
__precious	-2984
__wrong	-2985
__demanding	-2986
__catalogues	-2987
__627	-2988
__honestly	-2989
__sheng	-2990
__consultancy	-2991
__meantime	-2992
__laptop	-2993
__shirts	-2994
__assured	-2995
__families	-2996
__selected	-2997
__rapes	-2998
__arrangements	-2999
__mountainous	-3000
__lush	-3001
__chuck	-3002
__recruitment	-3003
__snuck	-3004
__soonest	-3005
__65	-3006
__rented	-3007
__pleasure	-3008
__creation	-3009
__alumni	-3010
__horribly	-3011
__weaknesses	-3012
__crash	-3013
__salesman	-3014
__lessons	-3015
__postcard	-3016
__checkpoint	-3017
__assistant	-3018
__implants	-3019
__pressure	-3020
__perseverance	-3021
__dope	-3022
__sean	-3023
__penny	-3024
__best	-3025
__regards	-3026
__golds	-3027
__trains	-3028
__plant	-3029
__shifts	-3030
__xingu	-3031
__preparing	-3032
__absent	-3033
__driving	-3034
__bushy	-3035
__trolley	-3036
__1825	-3037
__ericsson	-3038
__bouquet	-3039
__sells	-3040
__hitch	-3041
__six-piece	-3042
__todd	-3043
__mildew	-3044
__108	-3045
__pc	-3046
__kollwitz	-3047
__mists	-3048
__help	-3049
__polluted	-3050
__currency	-3051
__manhattan	-3052
__teapot	-3053
__pity	-3054
__mastercard	-3055
__climbed	-3056
__vip	-3057
__oops	-3058
__statement	-3059
__upper	-3060
__oversea	-3061
__spoken	-3062
__lost	-3063
__decades	-3064
__heavily	-3065
__cheaper	-3066
__53.95	-3067
__flipping	-3068
__drawback	-3069
__saudi	-3070
__herald	-3071
__reference	-3072
__11:30	-3073
__cleansing	-3074
__full	-3075
__financially	-3076
__750	-3077
__me	-3078
__parted	-3079
__cartoons	-3080
__okey	-3081
__passing	-3082
__brake	-3083
__ago	-3084
__songs	-3085
__affected	-3086
__cleaning	-3087
__ibm	-3088
__tenors	-3089
__tempura	-3090
__staying	-3091
__entertaining	-3092
__uh-huh	-3093
__sanlitun	-3094
__grape	-3095
__electronics	-3096
__platform	-3097
__hah	-3098
__operas	-3099
__crocodile	-3100
__ex-boyfriend	-3101
__well-done	-3102
__pineapple	-3103
__kung	-3104
__three-month	-3105
__robbed	-3106
__visiting	-3107
__acquiring	-3108
__wrist	-3109
__paul	-3110
__soul	-3111
__vitality	-3112
__kwon	-3113
__blouse	-3114
__8p	-3115
__petty	-3116
__memorizing	-3117
__3s	-3118
__dental	-3119
__holmes	-3120
__canterbury	-3121
__underwear	-3122
__favors	-3123
__reduce	-3124
__barriers	-3125
__lock	-3126
__seasonings	-3127
__advantages	-3128
__folder	-3129
__band	-3130
__baseball	-3131
__;	-3132
__kobe	-3133
__nail	-3134
__old	-3135
__canal	-3136
__2:45	-3137
__insulators	-3138
__beastie	-3139
__isn	-3140
__michigan	-3141
__sword	-3142
__series	-3143
__suitable	-3144
__clive	-3145
__names	-3146
__gustave	-3147
__prevent	-3148
__short-handed	-3149
__mats	-3150
__bounced	-3151
__thin	-3152
__productivity	-3153
__blocked	-3154
__francisco	-3155
__starch	-3156
__bully	-3157
__counterpart	-3158
__batwoman	-3159
__romanian	-3160
__12:00	-3161
__affect	-3162
__complimentary	-3163
__sybil	-3164
__birmingham	-3165
__service	-3166
__specialized	-3167
__unlucky	-3168
__printed	-3169
__busier	-3170
__dumped	-3171
__fats	-3172
__contingent	-3173
__wherever	-3174
__daze	-3175
__battlefield	-3176
__solomon	-3177
__standards	-3178
__damp	-3179
__beyond	-3180
__praise	-3181
__alternatives	-3182
__economics	-3183
__fancy	-3184
__tourism	-3185
__seventy	-3186
__adaptability	-3187
__kc	-3188
__possession	-3189
__fist	-3190
__harm	-3191
__nealy	-3192
__renaissance	-3193
__main	-3194
__meaningful	-3195
__jean	-3196
__prawn	-3197
__insured	-3198
__antibiotics	-3199
__back	-3200
__conferences	-3201
__backside	-3202
__countrymen	-3203
__photograph	-3204
__22,000	-3205
__7.9	-3206
__shoe	-3207
__fifth	-3208
__singing	-3209
__haha	-3210
__connect	-3211
__connected	-3212
__haunted	-3213
__hose	-3214
__thus	-3215
__finding	-3216
__nigel	-3217
__add	-3218
__notes	-3219
__telly	-3220
__senator	-3221
__advertisements	-3222
__sole	-3223
__acknowledgments	-3224
__timetable	-3225
__reply	-3226
__totally	-3227
__zone	-3228
__gym	-3229
__periods	-3230
__daydreaming	-3231
__lacy	-3232
__jr	-3233
__30th	-3234
__arrow	-3235
__luckily	-3236
__incident	-3237
__told	-3238
__but	-3239
__bail	-3240
__ancestors	-3241
__network	-3242
__softball	-3243
__ornament	-3244
__consult	-3245
__champion	-3246
__restrict	-3247
__pearls	-3248
__abraham	-3249
__coins	-3250
__mechanized	-3251
__crikey	-3252
__diego	-3253
__website	-3254
__chair	-3255
__spice	-3256
__yen	-3257
__password	-3258
__hammer	-3259
__titanic	-3260
__thousands	-3261
__quietness	-3262
__poems	-3263
__tornado	-3264
__fifty-five	-3265
__equipped	-3266
__banging	-3267
__27	-3268
__snail	-3269
__near	-3270
__childbirth	-3271
__outline	-3272
__waitress	-3273
__fro	-3274
__boneless	-3275
__mortgage	-3276
__equals	-3277
__wonderful	-3278
__catches	-3279
__father	-3280
__passengers	-3281
__rappelled	-3282
__nutrition	-3283
__invitations	-3284
__shorten	-3285
__highschool	-3286
__ripped	-3287
__sightseeing	-3288
__system	-3289
__granny	-3290
__indian	-3291
__prime	-3292
__gramercy	-3293
__burgers	-3294
__creating	-3295
__journalist	-3296
__campers	-3297
__role	-3298
__sunroof	-3299
__death	-3300
__brains	-3301
__speedometer	-3302
__of	-3303
__32.42	-3304
__daffodils	-3305
__thats	-3306
__dispenser	-3307
__headed	-3308
__pollution	-3309
__grammatical	-3310
__laughing	-3311
__area	-3312
__weddings	-3313
__ended	-3314
__voted	-3315
__hongkong	-3316
__peas	-3317
__878	-3318
__turning	-3319
__multinational	-3320
__when	-3321
__pumping	-3322
__equally	-3323
__chirping	-3324
__brochure	-3325
__taste	-3326
__dimples	-3327
__jet	-3328
__joanna	-3329
__cares	-3330
__knowledge	-3331
__19th	-3332
__suburbs	-3333
__gossiping	-3334
__hem	-3335
__doom	-3336
__offers	-3337
__coach	-3338
__toss	-3339
__forward	-3340
__saturday	-3341
__upside	-3342
__spirit	-3343
__huh	-3344
__chief	-3345
__national	-3346
__stir-fried	-3347
__word	-3348
__radio	-3349
__cell	-3350
__from	-3351
__nancy	-3352
__valentine	-3353
__330	-3354
__m11	-3355
__banana	-3356
__greatest	-3357
__embarkation	-3358
__visitor	-3359
__whoa	-3360
__267	-3361
__cruise	-3362
__stiff	-3363
__movies	-3364
__meg	-3365
__start	-3366
__effects	-3367
__beforehand	-3368
__manicures	-3369
__prada	-3370
__gymnastics	-3371
__60	-3372
__propaganda	-3373
__circumference	-3374
__caterpillar	-3375
__sensitive	-3376
__preparatory	-3377
__gerry	-3378
__housework	-3379
__bounce	-3380
__satisfied	-3381
__truthful	-3382
__pilgrims	-3383
__escrow	-3384
__spruce	-3385
__shane	-3386
__melted	-3387
__curry	-3388
__gynecology	-3389
__play	-3390
__wound	-3391
__singer	-3392
__colleagues	-3393
__aesthetics	-3394
__heart	-3395
__sorts	-3396
__12:10	-3397
__concussion	-3398
__except	-3399
__taipei	-3400
__essence	-3401
__washing	-3402
__unit	-3403
__robe	-3404
__category	-3405
__dined	-3406
__dandruff	-3407
__lovers	-3408
__conditioning	-3409
__examined	-3410
__monica	-3411
__grandmother	-3412
__painter	-3413
__ab	-3414
__attractions	-3415
__junk	-3416
__personality	-3417
__batch	-3418
__nonstop	-3419
__debates	-3420
__wasting	-3421
__camera	-3422
__splendid	-3423
__mic	-3424
__at	-3425
__around	-3426
__road	-3427
__stable	-3428
__hannibal	-3429
__165	-3430
__quilt	-3431
__five-year-old	-3432
__jeremy	-3433
__ways	-3434
__carnations	-3435
__admitted	-3436
__rides	-3437
__rating	-3438
__forgets	-3439
__canceling	-3440
__controls	-3441
__yogurt	-3442
__200	-3443
__secondary	-3444
__name	-3445
__grappa	-3446
__covered	-3447
__granting	-3448
__solution	-3449
__thirsty	-3450
__successful	-3451
__thriller	-3452
__range	-3453
__breasted	-3454
__1893	-3455
__don	-3456
__dive	-3457
__symbol	-3458
__separates	-3459
__ambulances	-3460
__here	-3461
__majoring	-3462
__strongly	-3463
__eyes	-3464
__hopefully	-3465
__catch	-3466
__little	-3467
__ugliness	-3468
__papers	-3469
__advice	-3470
__actions	-3471
__grow	-3472
__directory	-3473
__omit	-3474
__nothing	-3475
__long	-3476
__cantonese	-3477
__lifting	-3478
__editorials	-3479
__florida	-3480
__severance	-3481
__flooring	-3482
__weekdays	-3483
__feminine	-3484
__responsibilities	-3485
__typical	-3486
__dormitory	-3487
__menu	-3488
__youths	-3489
__lousy	-3490
__rhythms	-3491
__reimbursement	-3492
__authentic	-3493
__tilted	-3494
__rainbow	-3495
__pencil	-3496
__theaters	-3497
__rushed	-3498
__interval	-3499
__your	-3500
__earthquake	-3501
__washington	-3502
__tip	-3503
__professor	-3504
__invaluable	-3505
__cuisine	-3506
__jaguar	-3507
__history	-3508
__sears	-3509
__broad-shouldered	-3510
__retirement	-3511
__sang	-3512
__nowhere	-3513
__ditties	-3514
__refreshed	-3515
__videographer	-3516
__symbolizes	-3517
__loco	-3518
__research	-3519
__external	-3520
__relationships	-3521
__264	-3522
__karen	-3523
__among	-3524
__24th	-3525
__policeman	-3526
__installed	-3527
__ruin	-3528
__producing	-3529
__challenge	-3530
__broads	-3531
__skillfully	-3532
__tableware	-3533
__co	-3534
__beers	-3535
__responding	-3536
__paying	-3537
__tins	-3538
__415	-3539
__easily	-3540
__changing	-3541
__questions	-3542
__shangri-la	-3543
__seafood	-3544
__school	-3545
__mars	-3546
__frequent	-3547
__logistics	-3548
__learnt	-3549
__journalism	-3550
__clips	-3551
__overwhelmed	-3552
__answers	-3553
__fragile	-3554
__communication	-3555
__weight	-3556
__arabian	-3557
__unable	-3558
__plumbing	-3559
__audience	-3560
__seller	-3561
__electricity	-3562
__booming	-3563
__marco	-3564
__impact	-3565
__camp	-3566
__bargain	-3567
__harassing	-3568
__soon	-3569
__sung	-3570
__etv	-3571
__carts	-3572
__college	-3573
__reimburse	-3574
__squabble	-3575
__he	-3576
__inquiring	-3577
__poplar	-3578
__doggy	-3579
__ticket	-3580
__volunteer	-3581
__translator	-3582
__easygoing	-3583
__non-smokers	-3584
__seemingly	-3585
__scrambled	-3586
__dozen	-3587
__instance	-3588
__teams	-3589
__headaches	-3590
__rust	-3591
__6:00	-3592
__slice	-3593
__leads	-3594
__prefers	-3595
__deposit	-3596
__pastime	-3597
__slender	-3598
__outside	-3599
__123	-3600
__cooper	-3601
__way	-3602
__stood	-3603
__arm	-3604
__delays	-3605
__mister	-3606
__sons	-3607
__concern	-3608
__sympathize	-3609
__panning	-3610
__unlimited	-3611
__repeats	-3612
__translations	-3613
__embroidery	-3614
__chip	-3615
__professional	-3616
__af	-3617
__struck	-3618
__deducted	-3619
__focuses	-3620
__kitchenware	-3621
__telegraphic	-3622
__elementary	-3623
__28	-3624
__bye-bye	-3625
__sharon	-3626
__willows	-3627
__solved	-3628
__sluggish	-3629
__3p	-3630
__swears	-3631
__chocolates	-3632
__confiscate	-3633
__corp	-3634
__guys	-3635
__deadline	-3636
__expectation	-3637
__improve	-3638
__designed	-3639
__majority	-3640
__managing	-3641
__recipe	-3642
__corrections	-3643
__baltimore	-3644
__606	-3645
__wife	-3646
__dear	-3647
__mon	-3648
__puritans	-3649
__share	-3650
__chucks	-3651
__uh-oh	-3652
__cherries	-3653
__raise	-3654
__selective	-3655
__haver	-3656
__van	-3657
__cabins	-3658
__eyeball	-3659
__benefit	-3660
__introducing	-3661
__jewish	-3662
__lulu	-3663
__followed	-3664
__purple	-3665
__numbed	-3666
__score	-3667
__mysteries	-3668
__provisions	-3669
__interviewer	-3670
__thirst	-3671
__constantly	-3672
__assignment	-3673
__utensils	-3674
__cube	-3675
__strict	-3676
__fulfilled	-3677
__edge	-3678
__game	-3679
__acre	-3680
__university	-3681
__dine-in	-3682
__hasn	-3683
__goode	-3684
__quit	-3685
__prospect	-3686
__dryers	-3687
__jack	-3688
__cope	-3689
__inches	-3690
__northeast	-3691
__richard	-3692
__violet	-3693
__develop	-3694
__soak	-3695
__fewer	-3696
__tiptop	-3697
__vampire	-3698
__personnel	-3699
__candidates	-3700
__trainee	-3701
__hills	-3702
__daniel	-3703
__pennies	-3704
__expand	-3705
__cv	-3706
__anything	-3707
__bridge	-3708
__nap	-3709
__sundae	-3710
__vulgar	-3711
__chairman	-3712
__emigrate	-3713
__stevens	-3714
__satisfying	-3715
__patients	-3716
__toaster	-3717
__thomson	-3718
__insane	-3719
__zip	-3720
__graded	-3721
__cafe	-3722
__fool	-3723
__14th	-3724
__1021	-3725
__certainly	-3726
__yahoo	-3727
__minimum	-3728
__theme	-3729
__escape	-3730
__38th	-3731
__fail	-3732
__scarves	-3733
__alan	-3734
__evidence	-3735
__bother	-3736
__premiere	-3737
__compared	-3738
__landscapes	-3739
__relay	-3740
__version	-3741
__known	-3742
__sorority	-3743
__availability	-3744
__crenshaw	-3745
__lizards	-3746
__choice	-3747
__mountaineering	-3748
__scared	-3749
__piggy	-3750
__eccentric	-3751
__ravioli	-3752
__skills	-3753
__king-size	-3754
__his	-3755
__ices	-3756
__cart	-3757
__important	-3758
__telephone	-3759
__fight	-3760
__hundred	-3761
__childless	-3762
__cancellation	-3763
__sweden	-3764
__northward	-3765
__bridal	-3766
__fond	-3767
__roughs	-3768
__follow-up	-3769
__dumbest	-3770
__pennsylvania	-3771
__32	-3772
__tailors	-3773
__strengths	-3774
__sim	-3775
__dislike	-3776
__deduction	-3777
__neuroanatomy	-3778
__sheila	-3779
__forty	-3780
__bestsellers	-3781
__effluent	-3782
__smuggling	-3783
__lot	-3784
__jeez	-3785
__bug	-3786
__revise	-3787
__visitors	-3788
__christ	-3789
__predictable	-3790
__authorized	-3791
__fixed	-3792
__healthcare	-3793
__quarrel	-3794
__messing	-3795
__phenomenon	-3796
__annoy	-3797
__happiness	-3798
__greens	-3799
__download	-3800
__repair	-3801
__appearances	-3802
__purse	-3803
__hong	-3804
__kiss	-3805
__cutting	-3806
__outfit	-3807
__2:30	-3808
__just	-3809
__january	-3810
__wills	-3811
__attractive	-3812
__first-aid	-3813
__foods	-3814
__nerve	-3815
__west	-3816
__classical	-3817
__accounts	-3818
__cucumber	-3819
__operate	-3820
__anyway	-3821
__decathlon	-3822
__clerk	-3823
__link	-3824
__mum	-3825
__admittedly	-3826
__stops	-3827
__san	-3828
__boring	-3829
__inquire	-3830
__malaysia	-3831
__sufferings	-3832
__pharmaceutical	-3833
__government	-3834
__acquainted	-3835
__prosperous	-3836
__practise	-3837
__musical	-3838
__wind	-3839
__few	-3840
__magic	-3841
__not	-3842
__entry-level	-3843
__five	-3844
__telephoto	-3845
__alley	-3846
__gallon	-3847
__search	-3848
__promotion	-3849
__jessica	-3850
__adapt	-3851
__scoop	-3852
__cicadas	-3853
__pier	-3854
__confusing	-3855
__movable	-3856
__donkeys	-3857
__painful	-3858
__michael	-3859
__roasted	-3860
__cpa	-3861
__mr	-3862
__foster	-3863
__biked	-3864
__draft	-3865
__designer	-3866
__h	-3867
__ma	-3868
__margin	-3869
__severe	-3870
__crops	-3871
__invested	-3872
__sentence	-3873
__magazines	-3874
__clever	-3875
__hints	-3876
__matinee	-3877
__figures	-3878
__total	-3879
__terror	-3880
__alternatively	-3881
__cupboard	-3882
__quotations	-3883
__sticker	-3884
__dumplings	-3885
__betty	-3886
__regulates	-3887
__herself	-3888
__violin	-3889
__telling	-3890
__sichuan	-3891
__adjoining	-3892
__intend	-3893
__quality-control	-3894
__whales	-3895
__taxi	-3896
__hiking	-3897
__132	-3898
__11	-3899
__schedule	-3900
__paris	-3901
__25	-3902
__empty	-3903
__duck	-3904
__thief	-3905
__garbage	-3906
__energetic	-3907
__right-hand	-3908
__batter	-3909
__carrie	-3910
__undervalues	-3911
__toasting	-3912
__dog	-3913
__angry	-3914
__franchised	-3915
__frisbee	-3916
__roads	-3917
__angel	-3918
__award	-3919
__textbook	-3920
__privacy	-3921
__shredder	-3922
__pm	-3923
__stateroom	-3924
__emergency	-3925
__advantage	-3926
__24	-3927
__portfolio	-3928
__pound	-3929
__dodging	-3930
__command	-3931
__kites	-3932
__hurricane	-3933
__pools	-3934
__mountain	-3935
__meek	-3936
__deep	-3937
__land	-3938
__conduct	-3939
__tuna	-3940
__patience	-3941
__cheated	-3942
__butterfly	-3943
__galant	-3944
__landlords	-3945
__fry	-3946
__100,000	-3947
__down	-3948
__fresh	-3949
__overcoat	-3950
__cheater	-3951
__seasick	-3952
__tv	-3953
__rampant	-3954
__aquatics	-3955
__enquiries	-3956
__passionate	-3957
__collected	-3958
__salutation	-3959
__monkeys	-3960
__best-sellers	-3961
__agreeable	-3962
__oak	-3963
__930	-3964
__spoons	-3965
__ever-changing	-3966
__red	-3967
__launch	-3968
__inhibitor	-3969
__cpu	-3970
__march	-3971
__helen	-3972
__colours	-3973
__edinburgh	-3974
__interior	-3975
__standing	-3976
__proof	-3977
__direct	-3978
__byword	-3979
__japanese	-3980
__nearly	-3981
__gather	-3982
__rather	-3983
__printout	-3984
__mummy	-3985
__redecorating	-3986
__one-hundred	-3987
__smokes	-3988
__2006	-3989
__ties	-3990
__lecture	-3991
__wonderfully	-3992
__pete	-3993
__50	-3994
__goat	-3995
__predicts	-3996
__oceans	-3997
__cooks	-3998
__thrown	-3999
__defective	-4000
__resource	-4001
__conserve	-4002
__shrimp	-4003
__cookbook	-4004
__balance	-4005
__roommate	-4006
__beverages	-4007
__terrorist	-4008
__policies	-4009
__minded	-4010
__afterwards	-4011
__feeding	-4012
__region	-4013
__criticise	-4014
__invoices	-4015
__within	-4016
__acrobatics	-4017
__brocade	-4018
__ha	-4019
__bumper	-4020
__rotten	-4021
__painting	-4022
__with	-4023
__wallets	-4024
__birds	-4025
__pantaloons	-4026
__k	-4027
__dressed	-4028
__calculated	-4029
__benefits	-4030
__picky	-4031
__40	-4032
__collection	-4033
__office	-4034
__extent	-4035
__deafening	-4036
__arts	-4037
__needle	-4038
__husbands	-4039
__contents	-4040
__dissatisfying	-4041
__constrictor	-4042
__305	-4043
__agency	-4044
__renewed	-4045
__named	-4046
__recognize	-4047
__imagined	-4048
__cleans	-4049
__advertised	-4050
__pudding	-4051
__girlfriend	-4052
__spent	-4053
__restart	-4054
__passion	-4055
__offence	-4056
__rental	-4057
__africa	-4058
__826	-4059
__lucas	-4060
__discounted	-4061
__civilized	-4062
__courts	-4063
__acts	-4064
__applying	-4065
__common	-4066
__rewarding	-4067
__loop	-4068
__29.95	-4069
__3.4	-4070
__roses	-4071
__liberation	-4072
__this	-4073
__speaker	-4074
__thailand	-4075
__appropriate	-4076
__edit	-4077
__registration	-4078
__housekeeper	-4079
__promptly	-4080
__packs	-4081
__healthier	-4082
__bac	-4083
__slr	-4084
__glass	-4085
__percentage	-4086
__unsettling	-4087
__rear	-4088
__madsen	-4089
__turn	-4090
__salty	-4091
__vein	-4092
__chicken	-4093
__admission	-4094
__urinate	-4095
__enrich	-4096
__surveillance	-4097
__rich	-4098
__polly	-4099
__allergy	-4100
__already	-4101
__mailing	-4102
__occupied	-4103
__irish	-4104
__voucher	-4105
__honeymoon	-4106
__credentials	-4107
__nandu	-4108
__401	-4109
__commerce	-4110
__fetch	-4111
__july	-4112
__bureaucrats	-4113
__later	-4114
__fam	-4115
__fallen	-4116
__redskin	-4117
__gear	-4118
__sina	-4119
__accepted	-4120
__kerry	-4121
__4.05	-4122
__slurping	-4123
__go	-4124
__midterm	-4125
__geographic	-4126
__beaut	-4127
__exciting	-4128
__cashmere	-4129
__specialties	-4130
__conversational	-4131
__monaco	-4132
__timesheet	-4133
__technician	-4134
__grew	-4135
__starter	-4136
__325	-4137
__nah	-4138
__guiding	-4139
__life	-4140
__1000	-4141
__starring	-4142
__walnut	-4143
__sunny	-4144
__agreement	-4145
__belligerent	-4146
__yuanmingyuan	-4147
__upbringing	-4148
__centralise	-4149
__arcadia	-4150
__styles	-4151
__quarter	-4152
__westminster	-4153
__squeeze	-4154
__check	-4155
__sub-committee	-4156
__meals	-4157
__technological	-4158
__calculations	-4159
__quick	-4160
__avoid	-4161
__frills	-4162
__peeling	-4163
__recliner	-4164
__bargaining	-4165
__favor	-4166
__calculate	-4167
__1st	-4168
__jamie	-4169
__legalize	-4170
__stuck	-4171
__manicurist	-4172
__include	-4173
__studio	-4174
__conquered	-4175
__advised	-4176
__tough	-4177
__a5	-4178
__asia	-4179
__fundamental	-4180
__sweat	-4181
__mouthed	-4182
__doll	-4183
__mei	-4184
__fudge	-4185
__decline	-4186
__10th	-4187
__rhumba	-4188
__notebooks	-4189
__supposing	-4190
__antihistamine	-4191
__chardonnay	-4192
__news	-4193
__vain	-4194
__departure	-4195
__attachment	-4196
__shrunk	-4197
__years	-4198
__shorthand	-4199
__original	-4200
__marriage	-4201
__composition	-4202
__semi-annual	-4203
__earliest	-4204
__whereas	-4205
__stuffs	-4206
__ahead	-4207
__hurdles	-4208
__keith	-4209
__idling	-4210
__economic	-4211
__yunnan	-4212
__efforts	-4213
__unsuitable	-4214
__aerobic	-4215
__imports	-4216
__respond	-4217
__si	-4218
__higher	-4219
__overheard	-4220
__fairies	-4221
__replicated	-4222
__sometime	-4223
__wil	-4224
__giant	-4225
__units	-4226
__recovered	-4227
__lets	-4228
__parsons	-4229
__quarters	-4230
__sucked	-4231
__troublesome	-4232
__smelly	-4233
__privilege	-4234
__greek	-4235
__dine	-4236
__payoff	-4237
__signing	-4238
__here.the	-4239
__shining	-4240
__arranged	-4241
__allowing	-4242
__crossed	-4243
__mutual	-4244
__leak	-4245
__services	-4246
__shock	-4247
__bob	-4248
__mmm	-4249
__unexpectedly	-4250
__port	-4251
__maple	-4252
__saver	-4253
__often	-4254
__adjustment	-4255
__spelt	-4256
__sorted	-4257
__venture	-4258
__purses	-4259
__haste	-4260
__viral	-4261
__attitude	-4262
__ll	-4263
__banker	-4264
__essie	-4265
__mean	-4266
__safety	-4267
__qq	-4268
__lipton	-4269
__pointing	-4270
__tattoos	-4271
__scares	-4272
__facility	-4273
__modest	-4274
__quieter	-4275
__detailed	-4276
__impress	-4277
__tomatoes	-4278
__twenties	-4279
__eric	-4280
__tom	-4281
__beats	-4282
__an	-4283
__parades	-4284
__own	-4285
__requiring	-4286
__cave	-4287
__peanuts	-4288
__lined	-4289
__plan	-4290
__sloping	-4291
__logic	-4292
__cities	-4293
__wish	-4294
__deck	-4295
__renminbi	-4296
__reynolds	-4297
__10:45	-4298
__sprained	-4299
__enlarged	-4300
__fails	-4301
__556	-4302
__kid	-4303
__application	-4304
__porter	-4305
__waist	-4306
__finally	-4307
__vividly	-4308
__120	-4309
__book	-4310
__sell	-4311
__allow	-4312
__repeat	-4313
__perfumes	-4314
__volunteers	-4315
__hand	-4316
__raining	-4317
__hp	-4318
__shine	-4319
__beneficial	-4320
__prayers	-4321
__transfer	-4322
__1202	-4323
__usa	-4324
__pre-existing	-4325
__i	-4326
__assuming	-4327
__should	-4328
__pays	-4329
__easy	-4330
__forms	-4331
__remain	-4332
__pricy	-4333
__rows	-4334
__juiced	-4335
__courtyard	-4336
__buffet	-4337
__million	-4338
__care	-4339
__ginger	-4340
__egyptians	-4341
__interest	-4342
__5am	-4343
__fever	-4344
__scientists	-4345
__lie	-4346
__36.78	-4347
__delayed	-4348
__sophie	-4349
__luster	-4350
__changeable	-4351
__240	-4352
__optimistic	-4353
__becomes	-4354
__disgusting	-4355
__counter-offer	-4356
__returns	-4357
__enjoy	-4358
__stooped	-4359
__stretcher	-4360
__telegram	-4361
__7:59	-4362
__ron	-4363
__raising	-4364
__competitions	-4365
__angie	-4366
__los	-4367
__slate	-4368
__bachelors	-4369
__landing	-4370
__importer	-4371
__travolta	-4372
__outlets	-4373
__smooth	-4374
__boxed	-4375
__partner	-4376
__2002	-4377
__migrating	-4378
__sensibility	-4379
__piercings	-4380
__chocolate	-4381
__historical	-4382
__for	-4383
__accentuates	-4384
__psycho	-4385
__dylan	-4386
__chapter	-4387
__royal	-4388
__21	-4389
__business	-4390
__thorn	-4391
__rude	-4392
__irrevocable	-4393
__tune	-4394
__bowling	-4395
__amelia	-4396
__highly	-4397
__cat	-4398
__citizen	-4399
__june	-4400
__nagging	-4401
__vegetarian	-4402
__getting	-4403
__minus	-4404
__meaningless	-4405
__toppings	-4406
__asset	-4407
__bangs	-4408
__trends	-4409
__ache	-4410
__fierce	-4411
__outdoors	-4412
__keyboard	-4413
__wood	-4414
__wines	-4415
__graham	-4416
__canada	-4417
__e-mail	-4418
__playground	-4419
__sunglasses	-4420
__polling	-4421
__liquids	-4422
__davids	-4423
__nuts	-4424
__desired	-4425
__magical	-4426
__shamefully	-4427
__squash	-4428
__politics	-4429
__palace	-4430
__nicely	-4431
__because	-4432
__recovering	-4433
__arbitration	-4434
__equivalent	-4435
__place	-4436
__disability	-4437
__9p	-4438
__spot	-4439
__license	-4440
__bond	-4441
__shadow	-4442
__steaks	-4443
__leave	-4444
__loans	-4445
__calories	-4446
__rumba	-4447
__shouting	-4448
__squabbles	-4449
__francis	-4450
__management	-4451
__welfare	-4452
__unique	-4453
__returned	-4454
__pearl	-4455
__allergies	-4456
__tripod	-4457
__surcharge	-4458
__gambling	-4459
__option	-4460
__accesses	-4461
__transport	-4462
__applicants	-4463
__honey	-4464
__garden	-4465
__got	-4466
__diarrhea	-4467
__wildlife	-4468
__religion	-4469
__ebay	-4470
__centre	-4471
__oklahoma	-4472
__enjoying	-4473
__allied	-4474
__yikes	-4475
__68	-4476
__maintenance	-4477
__samsung	-4478
__overall	-4479
__amazing	-4480
__arteries	-4481
__stands	-4482
__gave	-4483
__mis	-4484
__freelance	-4485
__planned	-4486
__hunan	-4487
__painted	-4488
__jitters	-4489
__deadly	-4490
__newest	-4491
__feynman	-4492
__entryway	-4493
__robin	-4494
__grinning	-4495
__stew	-4496
__generations	-4497
__presents	-4498
__events	-4499
__freshman	-4500
__kahn	-4501
__poetry	-4502
__appearance	-4503
__backstroke	-4504
__bachelor	-4505
__well-educated	-4506
__7	-4507
__matched	-4508
__boyfriend	-4509
__gates	-4510
__like	-4511
__full-grown	-4512
__homeless	-4513
__indicate	-4514
__piccadilly	-4515
__hawkins	-4516
__inventions	-4517
__grab	-4518
__tooth	-4519
__begun	-4520
__dalian	-4521
__size	-4522
__effective	-4523
__christopher	-4524
__monkey	-4525
__222	-4526
__pack	-4527
__spring	-4528
__mongolian	-4529
__agents	-4530
__thousand	-4531
__racquetball	-4532
__showing	-4533
__inconvenience	-4534
__comment	-4535
__annoyed	-4536
__cylindrical	-4537
__salad	-4538
__steam	-4539
__hardworking	-4540
__disappeared	-4541
__replies	-4542
__grandpa	-4543
__translation	-4544
__yuan	-4545
__shooting	-4546
__urban	-4547
__wide	-4548
__cake	-4549
__broom	-4550
__powder	-4551
__gloves	-4552
__section	-4553
__bed	-4554
__pilgrimage	-4555
__girls	-4556
__eve	-4557
__romance	-4558
__913	-4559
__dressings	-4560
__bride	-4561
__downtown	-4562
__prepare	-4563
__exceeds	-4564
__maternity	-4565
__umm	-4566
__induction	-4567
__lithium	-4568
__onions	-4569
__pursue	-4570
__haven	-4571
__synthetic	-4572
__levels	-4573
__corona	-4574
__messages	-4575
__yellowstone	-4576
__fifteen	-4577
__born	-4578
__superintendent	-4579
__nba	-4580
__tend	-4581
__rainwater	-4582
__parade	-4583
__hilary	-4584
__17th	-4585
__whistling	-4586
__9:45	-4587
__idiot	-4588
__congratulations	-4589
__commission	-4590
__buns	-4591
__86	-4592
__songhua	-4593
__travelers	-4594
__baking	-4595
__munich	-4596
__swing	-4597
__huge	-4598
__disagreements	-4599
__detective	-4600
__snakes	-4601
__polian	-4602
__kind-hearted	-4603
__east	-4604
__over-the-top	-4605
__non-residents	-4606
__canadian	-4607
__measuring	-4608
__feel	-4609
__andrea	-4610
__squid	-4611
__transaction	-4612
__run	-4613
__puritan	-4614
__elevators	-4615
__crowds	-4616
__stacks	-4617
__september	-4618
__resemble	-4619
__invading	-4620
__sew	-4621
__investing	-4622
__exaggerate	-4623
__mba	-4624
__suburb	-4625
__thirty-six	-4626
__weekend	-4627
__increasing	-4628
__race	-4629
__hum	-4630
__sister-in-law	-4631
__waiting	-4632
__smoothly	-4633
__starting	-4634
__gallons	-4635
__forget	-4636
__danny	-4637
__immigrated	-4638
__serena	-4639
__mushroom	-4640
__tao	-4641
__belly	-4642
__mood	-4643
__bucket	-4644
__separate	-4645
__pin	-4646
__barb	-4647
__dripping	-4648
__catchup	-4649
__sharp	-4650
__callous	-4651
__pricey	-4652
__pains	-4653
__concentrate	-4654
__echoing	-4655
__rug	-4656
__n	-4657
__mass	-4658
__three	-4659
__manners	-4660
__journal	-4661
__based	-4662
__arrives	-4663
__objective	-4664
__relevant	-4665
__pliers	-4666
__levelheaded	-4667
__airplane	-4668
__sad	-4669
__tailor	-4670
__locals	-4671
__rehearsal	-4672
__chin	-4673
__chose	-4674
__driven	-4675
__mph	-4676
__genres	-4677
__cell-phone	-4678
__vic	-4679
__updating	-4680
__introduction	-4681
__form	-4682
__colorado	-4683
__100ml	-4684
__mistakes	-4685
__stockings	-4686
__unacceptable	-4687
__tested	-4688
__dispute	-4689
__eying	-4690
__intent	-4691
__besides	-4692
__watch	-4693
__opportunity	-4694
__bluffing	-4695
__paternity	-4696
__barely	-4697
__somewhat	-4698
__texts	-4699
__lion	-4700
__caught	-4701
__punishment	-4702
__seeds	-4703
__leaked	-4704
__farming	-4705
__calls	-4706
__programmes	-4707
__blade	-4708
__romans	-4709
__rule	-4710
__collage	-4711
__reach	-4712
__neighboring	-4713
__75,000	-4714
__doggie	-4715
__macs	-4716
__advertise	-4717
__costed	-4718
__fortunes	-4719
__sand	-4720
__ridiculous	-4721
__limited	-4722
__wreaking	-4723
__drift	-4724
__mileage	-4725
__walk	-4726
__participants	-4727
__squirrels	-4728
__choose	-4729
__busted	-4730
__/	-4731
__runway	-4732
__compliant	-4733
__barrel	-4734
__dry	-4735
__saying	-4736
__auditor	-4737
__formal	-4738
__sections	-4739
__flood	-4740
__2pm	-4741
__pictures	-4742
__1.25	-4743
__rates	-4744
__bothering	-4745
__shrimps	-4746
__coubertin	-4747
__construction	-4748
__defence	-4749
__graduates	-4750
__rum	-4751
__pace	-4752
__dazzling	-4753
__modem	-4754
__99.99	-4755
__individuality	-4756
__neighbors	-4757
__specifics	-4758
__else	-4759
__show	-4760
__recognized	-4761
__bid	-4762
__channel	-4763
__unpredictable	-4764
__korea	-4765
__bakery	-4766
__pins	-4767
__boast	-4768
__net	-4769
__introvert	-4770
__constant	-4771
__mother	-4772
__barcelona	-4773
__da	-4774
__doctors	-4775
__sex	-4776
__nt	-4777
__answer	-4778
__rolls	-4779
__purchases	-4780
__african-american	-4781
__challenged	-4782
__strenuously	-4783
__released	-4784
__entering	-4785
__darker	-4786
__awards	-4787
__t-shirts	-4788
__toronto	-4789
__ordering	-4790
__thighs	-4791
__centrally	-4792
__year	-4793
__barbara	-4794
__posted	-4795
__inspections	-4796
__cow	-4797
__jealous	-4798
__treasure	-4799
__suffer	-4800
__public	-4801
__enlarge	-4802
__mickey	-4803
__impatient	-4804
__curfew	-4805
__rackets	-4806
__feature	-4807
__liver	-4808
__gown	-4809
__tong	-4810
__dale	-4811
__grabbing	-4812
__taichung	-4813
__tense	-4814
__aware	-4815
__dumpling	-4816
__girl	-4817
__california	-4818
__voting	-4819
__rib	-4820
__hotter	-4821
__sydney	-4822
__coast	-4823
__vitamins	-4824
__identity	-4825
__declaration	-4826
__arrest	-4827
__independence	-4828
__increased	-4829
__vendor	-4830
__offered	-4831
__cleansers	-4832
__1949	-4833
__virtues	-4834
__nuggets	-4835
__strategies	-4836
__fines	-4837
__sweeps	-4838
__presence	-4839
__duplex	-4840
__fish	-4841
__favorably	-4842
__1965	-4843
__ann	-4844
__neighbourhood	-4845
__cindy	-4846
__melodies	-4847
__mouse	-4848
__282	-4849
__need	-4850
__egg	-4851
__administration	-4852
__belt	-4853
__clothes	-4854
__colored	-4855
__refreshment	-4856
__9:18	-4857
__beef	-4858
__campaign	-4859
__madame	-4860
__automation	-4861
__hiker	-4862
__thay	-4863
__curve	-4864
__baby	-4865
__alternative	-4866
__268	-4867
__ideas	-4868
__agencies	-4869
__replace	-4870
__certified	-4871
__sender	-4872
__crane	-4873
__vaccines	-4874
__athletics	-4875
__skydiving	-4876
__milk	-4877
__pedicures	-4878
__fungus	-4879
__pr	-4880
__broadened	-4881
__son	-4882
__query	-4883
__meanings	-4884
__fitting	-4885
__tomb	-4886
__shipped	-4887
__90	-4888
__perfectly	-4889
__mendoza	-4890
__sisters	-4891
__unhappy	-4892
__conditional	-4893
__diagram	-4894
__acting	-4895
__drag	-4896
__jenny	-4897
__plunge	-4898
__plastered	-4899
__programme	-4900
__vases	-4901
__dramas	-4902
__mixed	-4903
__wake	-4904
__117	-4905
__niece	-4906
__holds	-4907
__human	-4908
__justin	-4909
__double	-4910
__crouch	-4911
__cured	-4912
__utility	-4913
__watermelon	-4914
__perrier	-4915
__41	-4916
__detail	-4917
__sensor	-4918
__amplified	-4919
__company	-4920
__teriyaki	-4921
__reunions	-4922
__attaching	-4923
__storms	-4924
__vacancies	-4925
__thorough	-4926
__celebrate	-4927
__patent	-4928
__undesirable	-4929
__servicing	-4930
__wacko	-4931
__complains	-4932
__towards	-4933
__tiger	-4934
__pinch	-4935
__immigrate	-4936
__flight	-4937
__cd-rom	-4938
__707	-4939
__broke	-4940
__57	-4941
__fucking	-4942
__ethnic	-4943
__requires	-4944
__sites	-4945
__ernie	-4946
__shot	-4947
__percent	-4948
__flyer	-4949
__volunteered	-4950
__expense	-4951
__reback	-4952
__stabbed	-4953
__soud	-4954
__sunset	-4955
__23	-4956
__questionnaire	-4957
__pratt	-4958
__enthusiastic	-4959
__perform	-4960
__some	-4961
__zhang	-4962
__ironing	-4963
__bridegroom	-4964
__one-tenth	-4965
__fruit	-4966
__furry	-4967
__shake	-4968
__throat	-4969
__ceremony	-4970
__inside	-4971
__xinghai	-4972
__alligator	-4973
__waterfront	-4974
__upstairs	-4975
__positon	-4976
__grandkids	-4977
__safest	-4978
__cycle	-4979
__address	-4980
__citizens	-4981
__luoyang	-4982
__predestined	-4983
__compensation	-4984
__alison	-4985
__tampa	-4986
__catherine	-4987
__damage	-4988
__announcer	-4989
__unborn	-4990
__cherish	-4991
__duties	-4992
__courses	-4993
__warmest	-4994
__charity	-4995
__invest	-4996
__chen	-4997
__gretchen	-4998
__pur	-4999
__packed	-5000
__harvey	-5001
__dazzle	-5002
__nani	-5003
__bye	-5004
__fees	-5005
__feeling	-5006
__hat	-5007
__fair	-5008
__inscriptions	-5009
__disturbance	-5010
__found	-5011
__approved	-5012
__utilities	-5013
__glue	-5014
__table	-5015
__drink	-5016
__army	-5017
__ladder	-5018
__busying	-5019
__spices	-5020
__powerful	-5021
__criminal	-5022
__noise	-5023
__tangun	-5024
__hardest	-5025
__kentucky	-5026
__did	-5027
__jobs	-5028
__rolling	-5029
__richton	-5030
__novelist	-5031
__particulars	-5032
__captain	-5033
__lid	-5034
__residents	-5035
__harris	-5036
__gets	-5037
__flew	-5038
__two-and-a-half	-5039
__temporarily	-5040
__steady	-5041
__salads	-5042
__waterfalls	-5043
__organize	-5044
__trifles	-5045
__reasons	-5046
__arrival	-5047
__ur	-5048
__strive	-5049
__felix	-5050
__weapon	-5051
__409	-5052
__sophomore	-5053
__toward	-5054
__worse	-5055
__fairness	-5056
__begin	-5057
__isnt	-5058
__graduating	-5059
__lps	-5060
__impart	-5061
__kidneys	-5062
__six	-5063
__leading	-5064
__dickens	-5065
__circus	-5066
__reading	-5067
__hamburger	-5068
__telecommunications	-5069
__bleed	-5070
__headline	-5071
__andy	-5072
__cry	-5073
__remind	-5074
__being	-5075
__lewis	-5076
__beings	-5077
__crowd	-5078
__sweetheart	-5079
__delivery	-5080
__specific	-5081
__sophisticated	-5082
__mutilates	-5083
__drawer	-5084
__vivian	-5085
__qualify	-5086
__peaks	-5087
__wars	-5088
__position	-5089
__flea	-5090
__goods	-5091
__eyelid	-5092
__scanning	-5093
__knock-off	-5094
__portabella	-5095
__violets	-5096
__internist	-5097
__mexican	-5098
__dial	-5099
__fans	-5100
__people	-5101
__stewing	-5102
__expensive	-5103
__dancing	-5104
__traveller	-5105
__quesadilla	-5106
__onto	-5107
__l	-5108
__methods	-5109
__hocked	-5110
__sly	-5111
__such	-5112
__debit	-5113
__broccoli	-5114
__values	-5115
__puppies	-5116
__1.39	-5117
__greta	-5118
__silly	-5119
__filet	-5120
__thumb	-5121
__abort	-5122
__themselves	-5123
__cougars	-5124
__allergic	-5125
__colour	-5126
__hunter	-5127
__belen	-5128
__discourage	-5129
__prize	-5130
__eggnog	-5131
__allan	-5132
__religions	-5133
__cycling	-5134
__harmonious	-5135
__moved	-5136
__absence	-5137
__genre	-5138
__reschedule	-5139
__uppers	-5140
__drawers	-5141
__restroom	-5142
__you	-5143
__depending	-5144
__placements	-5145
__mansion	-5146
__jacked	-5147
__leo	-5148
__scotland	-5149
__rugby	-5150
__volcanic	-5151
__rodriguez	-5152
__relaxing	-5153
__hometown	-5154
__moisture	-5155
__exotic	-5156
__lived	-5157
__urgently	-5158
__comedies	-5159
__concerned	-5160
__308	-5161
__low-maintenance	-5162
__learner	-5163
__bothered	-5164
__noises	-5165
__class	-5166
__benjamin	-5167
__purchase	-5168
__chew	-5169
__imagination	-5170
__king	-5171
__bowel	-5172
__departs	-5173
__306	-5174
__recommended	-5175
__screwed	-5176
__checkout	-5177
__prestige	-5178
__bullfight	-5179
__tying	-5180
__leases	-5181
__buddha	-5182
__artist	-5183
__grains	-5184
__packaging	-5185
__pad	-5186
__tips	-5187
__attendant	-5188
__contacted	-5189
__in	-5190
__diligent	-5191
__lab	-5192
__eligible	-5193
__wait	-5194
__engineer	-5195
__countries	-5196
__door	-5197
__1234	-5198
__malia	-5199
__turtles	-5200
__kleenex	-5201
__grace	-5202
__35.00	-5203
__debbie	-5204
__enchiladas	-5205
__drive-in	-5206
__abilities	-5207
__views	-5208
__assemble	-5209
__wins	-5210
__cable	-5211
__whispered	-5212
__mechanical	-5213
__initially	-5214
__lumpur	-5215
__strengthen	-5216
__multivision	-5217
__schools	-5218
__hooray	-5219
__cleanliness	-5220
__bulb	-5221
__mrs	-5222
__problem	-5223
__matted	-5224
__pamela	-5225
__opposed	-5226
__aunt	-5227
__remember	-5228
__survey	-5229
__reminder	-5230
__raw	-5231
__operators	-5232
__muffins	-5233
__interrupted	-5234
__confidentiality	-5235
__kim	-5236
__lizard	-5237
__ellen	-5238
__edison	-5239
__valuing	-5240
__pastry	-5241
__323	-5242
__mason	-5243
__organization	-5244
__indication	-5245
__woman	-5246
__mosquitoes	-5247
__marketable	-5248
__slam	-5249
__frans	-5250
__jackets	-5251
__count	-5252
__liking	-5253
__imperial	-5254
__enquiry	-5255
__waterfall	-5256
__stewardess	-5257
__tonight	-5258
__dessert	-5259
__moments	-5260
__tasks	-5261
__juice	-5262
__flick	-5263
__mountains	-5264
__collateral	-5265
__ii	-5266
__yearly	-5267
__certain	-5268
__matches	-5269
__decide	-5270
__151	-5271
__frightened	-5272
__severing	-5273
__mature	-5274
__recommend	-5275
__vanessa	-5276
__explorers	-5277
__feet	-5278
__williams	-5279
__petrol	-5280
__nutshell	-5281
__ferris	-5282
__hall	-5283
__goodness	-5284
__moves	-5285
__transmission	-5286
__boston	-5287
__mark	-5288
__choir	-5289
__moustache	-5290
__27th	-5291
__supplies	-5292
__influence	-5293
__straw	-5294
__roll	-5295
__northwest	-5296
__involved	-5297
__balcony	-5298
__cloths	-5299
__become	-5300
__de	-5301
__pinkie	-5302
__documentaries	-5303
__industries	-5304
__custom-made	-5305
__foundation	-5306
__specialist	-5307
__murder	-5308
__commemorate	-5309
__signals	-5310
__denomination	-5311
__drugs	-5312
__bowl	-5313
__horrible	-5314
__destination	-5315
__trees	-5316
__sue	-5317
__all-inclusive	-5318
__envelopes	-5319
__confidential	-5320
__itself	-5321
__thee	-5322
__9:00	-5323
__tailoring	-5324
__dior	-5325
__kong	-5326
__yuu	-5327
__antivirus	-5328
__tremendously	-5329
__axe	-5330
__nonsmoking	-5331
__clear	-5332
__carry	-5333
__5000	-5334
__hockey	-5335
__roberts	-5336
__assorted	-5337
__ms	-5338
__pre-marital	-5339
__firefighter	-5340
__overcome	-5341
__accelerate	-5342
__convey	-5343
__underestimate	-5344
__leaking	-5345
__wasserman	-5346
__popular	-5347
__f	-5348
__burners	-5349
__welcoming	-5350
__terminate	-5351
__starve	-5352
__blended	-5353
__keep	-5354
__regulations	-5355
__cosmopolitan	-5356
__teahouse	-5357
__forbidden	-5358
__suggestion	-5359
__recover	-5360
__wheres	-5361
__photographs	-5362
__depressing	-5363
__accelerator	-5364
__slacks	-5365
__paged	-5366
__janice	-5367
__01	-5368
__chafing	-5369
__sneaky	-5370
__practice	-5371
__trivial	-5372
__corrupt	-5373
__travellers	-5374
__volume	-5375
__s	-5376
__elders	-5377
__cockroaches	-5378
__ports	-5379
__oaks	-5380
__bobbins	-5381
__buttermilk	-5382
__8th	-5383
__adequate	-5384
__weak	-5385
__tackled	-5386
__beard	-5387
__condoms	-5388
__56th	-5389
__lawn	-5390
__turkish	-5391
__instantly	-5392
__louise	-5393
__5:00	-5394
__hospitality	-5395
__parents	-5396
__presses	-5397
__chemicals	-5398
__trend	-5399
__cons	-5400
__cliff	-5401
__find	-5402
__medicines	-5403
__mein	-5404
__tube	-5405
__crush	-5406
__1984	-5407
__pyramids	-5408
__digestion	-5409
__hesitate	-5410
__christmas	-5411
__bryan	-5412
__pocket	-5413
__rope	-5414
__altered	-5415
__spots	-5416
__first-class	-5417
__disagree	-5418
__tie	-5419
__embarrassed	-5420
__round	-5421
__swahili	-5422
__renovated	-5423
__cheap	-5424
__notify	-5425
__veiled	-5426
__ideals	-5427
__amendment	-5428
__excitement	-5429
__stolen	-5430
__actress	-5431
__commotion	-5432
__thoughts	-5433
__loser	-5434
__drove	-5435
__gold	-5436
__submitted	-5437
__decision	-5438
__voice	-5439
__ace	-5440
__robot	-5441
__scientist	-5442
__engine	-5443
__kg	-5444
__realize	-5445
__quarterback	-5446
__1200	-5447
__until	-5448
__tacks	-5449
__susie	-5450
__quicker	-5451
__slides	-5452
__curious	-5453
__political	-5454
__three-star	-5455
__excluding	-5456
__continues	-5457
__milan	-5458
__miracle	-5459
__drawbacks	-5460
__resist	-5461
__items	-5462
__brian	-5463
__breadwinner	-5464
__antiques	-5465
__blast	-5466
__editor	-5467
__sociable	-5468
__album	-5469
__caused	-5470
__ross	-5471
__constructed	-5472
__basically	-5473
__flock	-5474
__advertisement	-5475
__detergent	-5476
__gift	-5477
__footages	-5478
__superstitious	-5479
__von	-5480
__oysters	-5481
__tall	-5482
__agent	-5483
__jerk	-5484
__sincerity	-5485
__reaction	-5486
__children	-5487
__classic	-5488
__relics	-5489
__coats	-5490
__mind	-5491
__bartender	-5492
__silverfish	-5493
__reveal	-5494
__ever	-5495
__frying	-5496
__6:30	-5497
__eyebrows	-5498
__snowed	-5499
__mayhew	-5500
__tether	-5501
__site	-5502
__nails	-5503
__franco	-5504
__otherwise	-5505
__convinced	-5506
__rochelle	-5507
__december	-5508
__unpaid	-5509
__lively	-5510
__tumble	-5511
__starts	-5512
__england	-5513
__mumm	-5514
__postgraduate	-5515
__sincere	-5516
__included	-5517
__lease	-5518
__ambitious	-5519
__facing	-5520
__5.01	-5521
__chops	-5522
__organizing	-5523
__scene	-5524
__delicacy	-5525
__hill	-5526
__exchange	-5527
__consciousness	-5528
__youth	-5529
__fade	-5530
__peepers	-5531
__consultants	-5532
__coupon	-5533
__josh	-5534
__gunpowder	-5535
__grandma	-5536
__expenses	-5537
__houses	-5538
__excellently	-5539
__grilled	-5540
__cbd	-5541
__military	-5542
__rainstorm	-5543
__hu	-5544
__1050	-5545
__sunning	-5546
__industry	-5547
__refills	-5548
__12th	-5549
__mole	-5550
__sets	-5551
__barton	-5552
__prohibited	-5553
__advanced	-5554
__consent	-5555
__nominees	-5556
__complaining	-5557
__fox	-5558
__prettier	-5559
__living	-5560
__escaped	-5561
__calling	-5562
__drawing	-5563
__practices	-5564
__screwdriver	-5565
__jared	-5566
__counts	-5567
__dressing	-5568
__warehouse	-5569
__waxworks	-5570
__representatives	-5571
__eaten	-5572
__hydrochlorothiazide	-5573
__editorial	-5574
__workout	-5575
__devastated	-5576
__enjoyed	-5577
__milestones	-5578
__longer	-5579
__lyrics	-5580
__4.55	-5581
__maris	-5582
__isabel	-5583
__causes	-5584
__internet	-5585
__specifications	-5586
__necessarily	-5587
__rolled	-5588
__summarize	-5589
__instalment	-5590
__washes	-5591
__sipped	-5592
__october	-5593
__awkward	-5594
__full-time	-5595
__tokyo	-5596
__201	-5597
__unpleasant	-5598
__clubs	-5599
__succeed	-5600
__liar	-5601
__chat	-5602
__companies	-5603
__fortify	-5604
__technical	-5605
__ninety-five	-5606
__commissary	-5607
__list	-5608
__marketing	-5609
__tienda	-5610
__tongue	-5611
__10s	-5612
__questioning	-5613
__my	-5614
__spilled	-5615
__referring	-5616
__scenic	-5617
__understandable	-5618
__break-in	-5619
__diamond	-5620
__feed	-5621
__9:30	-5622
__pens	-5623
__built	-5624
__butterflies	-5625
__etiquette	-5626
__1993	-5627
__hustle	-5628
__hardly	-5629
__exceptional	-5630
__unfurnished	-5631
__reflect	-5632
__ratio	-5633
__receives	-5634
__keypad	-5635
__print	-5636
__now	-5637
__retyped	-5638
__dolphin	-5639
__pointer	-5640
__asked	-5641
__manner	-5642
__think	-5643
__well-paid	-5644
__mate	-5645
__cartridges	-5646
__yellow	-5647
__adam	-5648
__latter	-5649
__muscle	-5650
__mother-in-law	-5651
__extroverted	-5652
__outbid	-5653
__who	-5654
__aboard	-5655
__satisfies	-5656
__robotic	-5657
__ming	-5658
__danish	-5659
__massagers	-5660
__paranoid	-5661
__residence	-5662
__pretty	-5663
__one-year	-5664
__labyrinth	-5665
__businessman	-5666
__doctorate	-5667
__obviously	-5668
__lichen	-5669
__wet	-5670
__stopping	-5671
__bottles	-5672
__improvements	-5673
__elevated	-5674
__...	-5675
__composed	-5676
__roger	-5677
__snacks	-5678
__spinach	-5679
__ski	-5680
__womanizer	-5681
__overdraft	-5682
__“	-5683
__norway	-5684
__johns	-5685
__fled	-5686
__boxing	-5687
__autumn	-5688
__roman	-5689
__300	-5690
__aidan	-5691
__trips	-5692
__inventory	-5693
__sparrow	-5694
__support	-5695
__swamped	-5696
__becky	-5697
__portion	-5698
__sporting	-5699
__skinnier	-5700
__religious	-5701
__cheque	-5702
__fragrance	-5703
__misses	-5704
__force	-5705
__hmo	-5706
__liked	-5707
__renown	-5708
__smiles	-5709
__obedient	-5710
__corporation	-5711
__certification	-5712
__brandy	-5713
__insure	-5714
__matters	-5715
__approach	-5716
__18th	-5717
__signal	-5718
__gatorade	-5719
__occupational	-5720
__are	-5721
__lasting	-5722
__enchanting	-5723
__fluids	-5724
__xmas	-5725
__mask	-5726
__declined	-5727
__martha	-5728
__antique	-5729
__150	-5730
__killing	-5731
__shovel	-5732
__anybody	-5733
__shorts	-5734
__says	-5735
__bandwidth	-5736
__lily	-5737
__ethernet	-5738
__twin	-5739
__will	-5740
__purpose	-5741
__experience	-5742
__thrilling	-5743
__arrested	-5744
__renew	-5745
__blogs	-5746
__sandra	-5747
__proofread	-5748
__qinghai	-5749
__programming	-5750
__trousers	-5751
__consignments	-5752
__loading	-5753
__datsun	-5754
__homestay	-5755
__507	-5756
__any	-5757
__willing	-5758
__jade	-5759
__subscriptions	-5760
__worm	-5761
__rhode	-5762
__unloading	-5763
__france	-5764
__one-bedroom	-5765
__achievements	-5766
__carefully	-5767
__goldman	-5768
__advancement	-5769
__2,300	-5770
__western	-5771
__take-out	-5772
__olympic	-5773
__gala	-5774
__tablet	-5775
__suffering	-5776
__one-way	-5777
__sunbathe	-5778
__live	-5779
__organizes	-5780
__glance	-5781
__language	-5782
__planet	-5783
__goes	-5784
__vegetables	-5785
__aug	-5786
__boot	-5787
__12:15	-5788
__drinking	-5789
__brand	-5790
__amid	-5791
__brothers	-5792
__pushed	-5793
__offended	-5794
__decoration	-5795
__kingdom	-5796
__peel	-5797
__bottle	-5798
__offering	-5799
__bedside	-5800
__nurse	-5801
__cooperation	-5802
__shower	-5803
__serves	-5804
__soy	-5805
__master	-5806
__freely	-5807
__missing	-5808
__fill	-5809
__oliver	-5810
__500	-5811
__in-laws	-5812
__consistent	-5813
__elegance	-5814
__photography	-5815
__plaza	-5816
__favourite	-5817
__waistcoat	-5818
__uh	-5819
__lorry	-5820
__everyday	-5821
__worry	-5822
__microwave	-5823
__superbad	-5824
__shout	-5825
__scholarship	-5826
__educational	-5827
__fork	-5828
__inferior	-5829
__declare	-5830
__wipe	-5831
__hike	-5832
__plastic	-5833
__firmly	-5834
__contracts	-5835
__christian	-5836
__ripe	-5837
__zero	-5838
__front	-5839
__nike	-5840
__asks	-5841
__browse	-5842
__peacemaker	-5843
__recall	-5844
__joseph	-5845
__mar	-5846
__hugh	-5847
__sticking	-5848
__preach	-5849
__too	-5850
__slippers	-5851
__pierced	-5852
__pinto	-5853
__pot	-5854
__knocking	-5855
__fine	-5856
__orientation	-5857
__100	-5858
__tends	-5859
__employer	-5860
__tore	-5861
__elderly	-5862
__eggs	-5863
__machines	-5864
__games	-5865
__2008	-5866
__mechanics	-5867
__roof	-5868
__pages	-5869
__unripe	-5870
__guitarist	-5871
__self-study	-5872
__desire	-5873
__revised	-5874
__rewards	-5875
__dolls	-5876
__residential	-5877
__mew	-5878
__2nd	-5879
__behave	-5880
__music	-5881
__discussing	-5882
__emily	-5883
__cousins	-5884
__candles	-5885
__minimal	-5886
__sack	-5887
__goodbye	-5888
__sis	-5889
__pre-qualified	-5890
__north	-5891
__stricken	-5892
__tina	-5893
__brown	-5894
__cane	-5895
__suspicion	-5896
__individually	-5897
__difficulty	-5898
__breathtaking	-5899
__resignation	-5900
__fusion	-5901
__75	-5902
__perspired	-5903
__faced	-5904
__satellite	-5905
__jianshe	-5906
__jing	-5907
__coming	-5908
__globe	-5909
__scold	-5910
__arguing	-5911
__leader	-5912
__expiry	-5913
__nibbling	-5914
__meet	-5915
__kings	-5916
__sausages	-5917
__notice	-5918
__phrases	-5919
__judge	-5920
__insect	-5921
__electrical	-5922
__video	-5923
__accident	-5924
__humble	-5925
__credit	-5926
__spare	-5927
__population	-5928
__tag	-5929
__bastards	-5930
__manufacturer	-5931
__attack	-5932
__journey	-5933
__knocked	-5934
__sanyu	-5935
__bend	-5936
__70th	-5937
__society	-5938
__influenced	-5939
__anthony	-5940
__catharine	-5941
__sauce	-5942
__gas	-5943
__employ	-5944
__twenty	-5945
__folks	-5946
__wages	-5947
__decaf	-5948
__elder	-5949
__throws	-5950
__bustle	-5951
__status	-5952
__78	-5953
__contaminants	-5954
__thank	-5955
__invoking	-5956
__bus	-5957
__6:15	-5958
__away	-5959
__bell	-5960
__phony	-5961
__urinated	-5962
__pitched	-5963
__snitching	-5964
__rack	-5965
__laws	-5966
__swallow	-5967
__exhibition	-5968
__windsurfing	-5969
__dealing	-5970
__languages	-5971
__sight-seeing	-5972
__greatly	-5973
__slept	-5974
__bundle	-5975
__accelerated	-5976
__conclude	-5977
__flung	-5978
__poorly	-5979
__super-fast	-5980
__clearly	-5981
__compare	-5982
__1989	-5983
__draughts	-5984
__anniversary	-5985
__interfere	-5986
__heavy	-5987
__berth	-5988
__dissolve	-5989
__roommates	-5990
__daisy	-5991
__bones	-5992
__comparable	-5993
__soils	-5994
__leaders	-5995
__shaky	-5996
__orange	-5997
__opening	-5998
__nisei	-5999
__pigeons	-6000
__out-of-date	-6001
__900	-6002
__raised	-6003
__lighter	-6004
__naughty	-6005
__beaches	-6006
__branch	-6007
__slacking	-6008
__fling	-6009
__degree	-6010
__pimple	-6011
__huang	-6012
__lawyer	-6013
__buckingham	-6014
__bacteria	-6015
__quality	-6016
__disaster	-6017
__gorges	-6018
__receipt	-6019
__hotdog	-6020
__queuing	-6021
__compass	-6022
__legs	-6023
__pam	-6024
__auctioning	-6025
__bloom	-6026
__foreigner	-6027
__9:55	-6028
__styling	-6029
__sidewalk	-6030
__frost	-6031
__battery	-6032
__rare	-6033
__teddy	-6034
__deal	-6035
__bummer	-6036
__lo	-6037
__hiring	-6038
__vera	-6039
__fertilizers	-6040
__grapefruit	-6041
__pilgrimages	-6042
__facts	-6043
__wondered	-6044
__code	-6045
__kate	-6046
__talented	-6047
__spacious	-6048
__muscular	-6049
__soft	-6050
__casualties	-6051
__bread	-6052
__satisfaction	-6053
__spend	-6054
__plants	-6055
__equal	-6056
__tablets	-6057
__wardrobe	-6058
__luther	-6059
__nice	-6060
__fives	-6061
__machinery	-6062
__consist	-6063
__informal	-6064
__bourbon	-6065
__sailing	-6066
__called	-6067
__accountancy	-6068
__joy	-6069
__sizable	-6070
__cartwright	-6071
__healthy	-6072
__tonsils	-6073
__stationary	-6074
__renaldo	-6075
__prints	-6076
__havoc	-6077
__recitation	-6078
__emma	-6079
__id	-6080
__j	-6081
__in-flight	-6082
__cartoon	-6083
__round-trip	-6084
__montreal	-6085
__salt	-6086
__conflict	-6087
__messed	-6088
__symbols	-6089
__unfortunately	-6090
__4500	-6091
__laundromat	-6092
__entertain	-6093
__ashtray	-6094
__pick-up	-6095
__glasses	-6096
__google.com	-6097
__job	-6098
__copying	-6099
__stupendous	-6100
__opera	-6101
__expectancy	-6102
__indefinitely	-6103
__belongings	-6104
__436	-6105
__good	-6106
__film	-6107
__jumped	-6108
__deficit	-6109
__register	-6110
__refill	-6111
__buttered	-6112
__log	-6113
__straightened	-6114
__trash	-6115
__hawaii	-6116
__generation	-6117
__donuts	-6118
__issued	-6119
__each	-6120
__karl	-6121
__quickly	-6122
__nineteen	-6123
__norton	-6124
__imported	-6125
__rain	-6126
__regularly	-6127
__machine	-6128
__tennis	-6129
__appetizer	-6130
__cop	-6131
__pots	-6132
__post	-6133
__haj	-6134
__steep	-6135
__forehead	-6136
__canary	-6137
__guidebook	-6138
__stereotypes	-6139
__amicably	-6140
__closing	-6141
__hinder	-6142
__veggies	-6143
__dyeing	-6144
__wen	-6145
__circumstances	-6146
__winnings	-6147
__160	-6148
__get-together	-6149
__compromise	-6150
__excuses	-6151
__hairs	-6152
__shy	-6153
__green	-6154
__abode	-6155
__45	-6156
__responsibility	-6157
__warmer	-6158
__discharge	-6159
__modern	-6160
__lengthen	-6161
__bcd	-6162
__galas	-6163
__or	-6164
__costs	-6165
__refresh	-6166
__inspection	-6167
__rookie	-6168
__garlic	-6169
__manikin	-6170
__synchronized	-6171
__adorable	-6172
__french	-6173
__feedback	-6174
__oooo	-6175
__wisconsin	-6176
__failing	-6177
__456	-6178
__conservative	-6179
__peppers	-6180
__hilt	-6181
__luke	-6182
__executive	-6183
__studios	-6184
__janus	-6185
__incredible	-6186
__printings	-6187
__entered	-6188
__henderson	-6189
__extrovert	-6190
__cooler	-6191
__scandal	-6192
__reciting	-6193
__continuous	-6194
__stationery	-6195
__opinion	-6196
__oldest	-6197
__realized	-6198
__non-english	-6199
__50,000	-6200
__35	-6201
__jane	-6202
__accordingly	-6203
__cooperated	-6204
__usual	-6205
__relaxed	-6206
__day	-6207
__companion	-6208
__week	-6209
__revolutionary	-6210
__center	-6211
__represent	-6212
__ocean	-6213
__performance	-6214
__hook	-6215
__owe	-6216
__smoked	-6217
__wondering	-6218
__jeans	-6219
__supervisors	-6220
__vital	-6221
__tang	-6222
__politicians	-6223
__oven	-6224
__various	-6225
__grammar	-6226
__yesterday	-6227
__nope	-6228
__undoubtedly	-6229
__lawson	-6230
__stress	-6231
__3.14	-6232
__scenes	-6233
__introverted	-6234
__suggestions	-6235
__armstrong	-6236
__edith	-6237
__documents	-6238
__forearm	-6239
__day-to-day	-6240
__bacon	-6241
__divorce	-6242
__lima	-6243
__picnic	-6244
__pleased	-6245
__frugal	-6246
__noodles	-6247
__wears	-6248
__chinese	-6249
__pants	-6250
__met	-6251
__targeted	-6252
__4000	-6253
__provides	-6254
__swiss	-6255
__。	-6256
__compact	-6257
__child	-6258
__hairstyle	-6259
__extend	-6260
__vacancy	-6261
__characteristics	-6262
__cooperate	-6263
__shuts	-6264
__angle	-6265
__dropped	-6266
__usher	-6267
__ash	-6268
__independent	-6269
__suggesting	-6270
__patties	-6271
__investigation	-6272
__fiction	-6273
__kilograms	-6274
__woolen	-6275
__decent	-6276
__alternations	-6277
__mitchum	-6278
__commercial	-6279
__room	-6280
__drop	-6281
__transportation	-6282
__chores	-6283
__finance	-6284
__made	-6285
__fulfill	-6286
__swim	-6287
__part-timer	-6288
__singsong	-6289
__council	-6290
__headphones	-6291
__hobby	-6292
__barks	-6293
__outfits	-6294
__exposed	-6295
__retreat	-6296
__jump	-6297
__communist	-6298
__hourly	-6299
__recheck	-6300
__roughly	-6301
__bumps	-6302
__overboard	-6303
__overlooked	-6304
__lately	-6305
__chow	-6306
__cancellations	-6307
__clarify	-6308
__duplicate	-6309
__speech	-6310
__partners	-6311
__badly	-6312
__faint	-6313
__pasta	-6314
__power	-6315
__1985	-6316
__nines	-6317
__wealth	-6318
__floors	-6319
__approvals	-6320
__(	-6321
__hk	-6322
__smiths	-6323
__friends	-6324
__technology	-6325
__triples	-6326
__animal	-6327
__gorgeous	-6328
__five-year	-6329
__holding	-6330
__maybe	-6331
__neither	-6332
__blood	-6333
__reporter	-6334
__carry-on	-6335
__levin	-6336
__special	-6337
__islam	-6338
__flattering	-6339
__making	-6340
__fancies	-6341
__housekeeping	-6342
__alexander	-6343
__lute	-6344
__jeffery	-6345
__polarizing	-6346
__pour	-6347
__peng	-6348
__overnight	-6349
__penalty	-6350
__recommending	-6351
__clinique	-6352
__alright	-6353
__dangerous	-6354
__releases	-6355
__injection	-6356
__stubborn	-6357
__dates	-6358
__boarding	-6359
__rubber	-6360
__busy	-6361
__shrek	-6362
__low	-6363
__departments	-6364
__6th	-6365
__occasional	-6366
__pandas	-6367
__jake	-6368
__macroeconomics	-6369
__match	-6370
__retention	-6371
__furnished	-6372
__gifts	-6373
__principles	-6374
__appetizers	-6375
__ton	-6376
__lenient	-6377
__bruce	-6378
__moving	-6379
__swans	-6380
__dedicate	-6381
__teresa	-6382
__anytime	-6383
__treasury	-6384
__donate	-6385
__parked	-6386
__sea	-6387
__chips	-6388
__idea	-6389
__hoover	-6390
__mindlessly	-6391
__gymnasium	-6392
__1976	-6393
__evenings	-6394
__plays	-6395
__mitsubishi	-6396
__charted	-6397
__price	-6398
__aches	-6399
__fabulous	-6400
__skins	-6401
__mecca	-6402
__threatening	-6403
__chinese-style	-6404
__cancelling	-6405
__feathers	-6406
__drought	-6407
__homeroom	-6408
__since	-6409
__hacker	-6410
__tis	-6411
__department	-6412
__rodgers	-6413
__gail	-6414
__disturbing	-6415
__listened	-6416
__general	-6417
__kitchen	-6418
__buy	-6419
__seats	-6420
__complementary	-6421
__cartridge	-6422
__sight	-6423
__sacred	-6424
__hail	-6425
__arms	-6426
__product	-6427
__wounds	-6428
__dispatch	-6429
__sort	-6430
__bikini	-6431
__addressed	-6432
__kilos	-6433
__cost	-6434
__19	-6435
__guilty	-6436
__been	-6437
__straight	-6438
__eq	-6439
__wrote	-6440
__handsome	-6441
__blue	-6442
__discoveries	-6443
__bookcase	-6444
__shipping	-6445
__2	-6446
__switching	-6447
__client	-6448
__rocky	-6449
__off	-6450
__anyways	-6451
__athletes	-6452
__christians	-6453
__structure	-6454
__sunshine	-6455
__clears	-6456
__chandler	-6457
__tank	-6458
__towel	-6459
__expected	-6460
__spaces	-6461
__idol	-6462
__someone	-6463
__marvelous	-6464
__hasty	-6465
__shorter	-6466
__get	-6467
__hut	-6468
__advise	-6469
__kenny	-6470
__nile	-6471
__shallow	-6472
__possible	-6473
__intensive	-6474
__wonder	-6475
__permission	-6476
__microeconomics	-6477
__bean	-6478
__building	-6479
__structures	-6480
__visible	-6481
__intake	-6482
__spoils	-6483
__mckenna	-6484
__meat	-6485
__coordination	-6486
__determined	-6487
__tolerance	-6488
__health	-6489
__superman	-6490
__assistance	-6491
__1808	-6492
__dependable	-6493
__means	-6494
__lipgloss	-6495
__faxes	-6496
__free	-6497
__sings	-6498
__fit	-6499
__preserve	-6500
__according	-6501
__ourselves	-6502
__ears	-6503
__rights	-6504
__wether	-6505
__tickled	-6506
__breeze	-6507
__sending	-6508
__compound	-6509
__measure	-6510
__distinguished	-6511
__pet	-6512
__ink	-6513
__fragrant	-6514
__typist	-6515
__plage	-6516
__municipal	-6517
__mutton	-6518
__29th	-6519
__fiancee	-6520
__tumor	-6521
__long-distance	-6522
__rake	-6523
__kilo	-6524
__1,000	-6525
__skin	-6526
__menus	-6527
__revenues	-6528
__apple	-6529
__lips	-6530
__productive	-6531
__flavors	-6532
__shanti	-6533
__exceed	-6534
__spirits	-6535
__officially	-6536
__friendship	-6537
__surname	-6538
__cavity	-6539
__yard	-6540
__maryland	-6541
__ear	-6542
__comer	-6543
__experienced	-6544
__versus	-6545
__chinese-speaking	-6546
__kramer	-6547
__first	-6548
__sensible	-6549
__chunk	-6550
__managers	-6551
__yong	-6552
__only	-6553
__nimble	-6554
__invoice	-6555
__teammates	-6556
__codes	-6557
__betting	-6558
__age	-6559
__relax	-6560
__duty	-6561
__delivered	-6562
__ruined	-6563
__her	-6564
__disconnected	-6565
__coincide	-6566
__assure	-6567
__minnesota	-6568
__majored	-6569
__leaving	-6570
__drivers	-6571
__suitcases	-6572
__childhood	-6573
__missed	-6574
__pig	-6575
__heavenly	-6576
__coat	-6577
__gut	-6578
__whichever	-6579
__hurt	-6580
__tombs	-6581
__locks	-6582
__koo	-6583
__bedsheets	-6584
__twenty-four	-6585
__grand	-6586
__chairs	-6587
__smile	-6588
__poison	-6589
__outstanding	-6590
__worked	-6591
__eighteen	-6592
__birthplace	-6593
__jones	-6594
__states	-6595
__delete	-6596
__tones	-6597
__bryant	-6598
__funding	-6599
__error	-6600
__annoying	-6601
__stenography	-6602
__dave	-6603
__masha	-6604
__none	-6605
__eleven	-6606
__secretarial	-6607
__enough	-6608
__partake	-6609
__rejection	-6610
__developed	-6611
__burrito	-6612
__measurement	-6613
__vivid	-6614
__reminding	-6615
__examine	-6616
__bestseller	-6617
__either	-6618
__completed	-6619
__sizzling	-6620
__1.15	-6621
__evan	-6622
__marriages	-6623
__numbers	-6624
__lean	-6625
__operator	-6626
__responsible	-6627
__huston	-6628
__bowls	-6629
__mailbox	-6630
__ministry	-6631
__mingle	-6632
__carsick	-6633
__appreciated	-6634
__belinda	-6635
__verify	-6636
__rarely	-6637
__ask	-6638
__vegas	-6639
__preferences	-6640
__gosh	-6641
__termination	-6642
__600	-6643
__seek	-6644
__1700	-6645
__jenson	-6646
__loads	-6647
__gentle	-6648
__attendance	-6649
__donald	-6650
__kit	-6651
__backed	-6652
__especially	-6653
__payments	-6654
__classmates	-6655
__centimeters	-6656
__materials	-6657
__bathe	-6658
__lincoln	-6659
__qualifications	-6660
__hang	-6661
__wake-up	-6662
__owens	-6663
__flicking	-6664
__kilometer	-6665
__hissing	-6666
__joke	-6667
__jingshan	-6668
__talks	-6669
__details	-6670
__water	-6671
__novels	-6672
__82nd	-6673
__organic	-6674
__wall	-6675
__secret	-6676
__top-notch	-6677
__usually	-6678
__supper	-6679
__2:15	-6680
__merry	-6681
__lag	-6682
__locate	-6683
__tests	-6684
__bo	-6685
__carpenter	-6686
__flowers	-6687
__remington	-6688
__following	-6689
__mazda	-6690
__accordance	-6691
__both	-6692
__drapes	-6693
__richards	-6694
__flash	-6695
__whirlpool	-6696
__15:10	-6697
__ryan	-6698
__401k	-6699
__sleeper	-6700
__mosquitos	-6701
__heating	-6702
__reviving	-6703
__canyons	-6704
__sleeves	-6705
__skates	-6706
__transactions	-6707
__scenery	-6708
__chez	-6709
__lucky	-6710
__grief	-6711
__directly	-6712
__1,500	-6713
__firing	-6714
__urine	-6715
__butter	-6716
__survive	-6717
__pockets	-6718
__meter	-6719
__counting	-6720
__steal	-6721
__camcorder	-6722
__roomy	-6723
__1.5	-6724
__couch	-6725
__ends	-6726
__6.5	-6727
__course	-6728
__patrick	-6729
__nursery	-6730
__cellular	-6731
__villages	-6732
__hasten	-6733
__uniform	-6734
__typed	-6735
__courier	-6736
__drawn	-6737
__refuse	-6738
__ver	-6739
__paid	-6740
__tech	-6741
__yourself	-6742
__interact	-6743
__postponed	-6744
__snowboarding	-6745
__science	-6746
__psychology	-6747
__big	-6748
__metro	-6749
__europe	-6750
__discovered	-6751
__souvenir	-6752
__creeps	-6753
__520	-6754
__basics	-6755
__invited	-6756
__aliens	-6757
__westlake	-6758
__jasmine	-6759
__premises	-6760
__dull	-6761
__square-shaped	-6762
__theirs	-6763
__yangtze	-6764
__sat	-6765
__spiders	-6766
__others	-6767
__steroids	-6768
__font	-6769
__sweethearts	-6770
__wed	-6771
__costume	-6772
__125	-6773
__shiver	-6774
__balls	-6775
__insects	-6776
__marathon	-6777
__d60	-6778
__distinct	-6779
__relocating	-6780
__unaged	-6781
__crew	-6782
__experiments	-6783
__large	-6784
__resign	-6785
__g	-6786
__edd	-6787
__bask	-6788
__cath	-6789
__bombed	-6790
__checking	-6791
__experiences	-6792
__along	-6793
__30000	-6794
__elevator	-6795
__221	-6796
__memberships	-6797
__jokes	-6798
__plenty	-6799
__thumbs	-6800
__smart	-6801
__kebabs	-6802
__institute	-6803
__manchester	-6804
__taylors	-6805
__victims	-6806
__samuel	-6807
__jacuzzi	-6808
__surgery	-6809
__beach	-6810
__sing	-6811
__two	-6812
__ben	-6813
__1010	-6814
__situations	-6815
__lanterns	-6816
__hanged	-6817
__luggage	-6818
__vodka	-6819
__reserved	-6820
__probationary	-6821
__watches	-6822
__memory	-6823
__troy	-6824
__factor	-6825
__maturing	-6826
__cubby	-6827
__robbing	-6828
__robinson	-6829
__london	-6830
__lambeth	-6831
__ulcer	-6832
__interchange	-6833
__pale	-6834
__asian	-6835
__resort	-6836
__aggravated	-6837
__budgeted	-6838
__booking	-6839
__margaritas	-6840
__plates	-6841
__early	-6842
__plate	-6843
__gre	-6844
__berkeley	-6845
__dehydrated	-6846
__tangerine	-6847
__bears	-6848
__marsh	-6849
__collector	-6850
__silent	-6851
__chop	-6852
__factors	-6853
__referee	-6854
__flavored	-6855
__onion	-6856
__relate	-6857
__crawling	-6858
__wished	-6859
__exercised	-6860
__diving	-6861
__laser	-6862
__cai	-6863
__steaming	-6864
__steering	-6865
__"	-6866
__du	-6867
__strut	-6868
__timesheets	-6869
__spotlessly	-6870
__laceration	-6871
__interview	-6872
__fourteen	-6873
__velocity	-6874
__accurately	-6875
__nokia	-6876
__sitting	-6877
__alike	-6878
__panda	-6879
__geology	-6880
__resume	-6881
__hiked	-6882
__flatters	-6883
__exit	-6884
__prepared	-6885
__laughter	-6886
__requesting	-6887
__personal	-6888
__cases	-6889
__consumers	-6890
__tasha	-6891
__flesh	-6892
__motivated	-6893
__united	-6894
__becoming	-6895
__forwarding	-6896
__withdrawal	-6897
__whoever	-6898
__stressful	-6899
__bill	-6900
__mid-size	-6901
__sayuri	-6902
__palmistry	-6903
__hive	-6904
__tactics	-6905
__almonds	-6906
__provide	-6907
__group	-6908
__pursuit	-6909
__contaminant	-6910
__morning	-6911
__ambitions	-6912
__la	-6913
__ground	-6914
__mam	-6915
__ham	-6916
__funded	-6917
__clearer	-6918
__models	-6919
__downstairs	-6920
__pepperoni	-6921
__wal-mart	-6922
__aroma	-6923
__doff	-6924
__kino	-6925
__gills	-6926
__injuring	-6927
__fully	-6928
__repetition	-6929
__physicians	-6930
__roast	-6931
__a	-6932
__eagle	-6933
__medium-sized	-6934
__semester	-6935
__manufacture	-6936
__headlines	-6937
__kindly	-6938
__fu	-6939
__artists	-6940
__unleaded	-6941
__negotiable	-6942
__seasonal	-6943
__abby	-6944
__resilience	-6945
__believes	-6946
__grounded	-6947
__cottons	-6948
__789	-6949
__mini	-6950
__designs	-6951
__pies	-6952
__itches	-6953
__bun	-6954
__monitor	-6955
__learn	-6956
__swift	-6957
__proficient	-6958
__ten-dollar	-6959
__warranty	-6960
__comfort	-6961
__sit-down	-6962
__safely	-6963
__shaver	-6964
__freight	-6965
__remains	-6966
__complications	-6967
__alone	-6968
__karaoke	-6969
__cord	-6970
__equipments	-6971
__all-day	-6972
__lee	-6973
__attention	-6974
__l'oreal	-6975
__so-so	-6976
__drinkers	-6977
__patch	-6978
__worried	-6979
__v-neck	-6980
__richest	-6981
__grade	-6982
__slower	-6983
__myers	-6984
__tasted	-6985
__spreading	-6986
__boots	-6987
__vice	-6988
__worms	-6989
__connecting	-6990
__displays	-6991
__appear	-6992
__deduct	-6993
__seduce	-6994
__disclose	-6995
__tempting	-6996
__lovely	-6997
__lights	-6998
__fools	-6999
__clinton	-7000
__depends	-7001
__3.50	-7002
__pointy	-7003
__china	-7004
__slave	-7005
__unless	-7006
__striped	-7007
__phoebe	-7008
__residing	-7009
__wedding	-7010
__winter	-7011
__greg	-7012
__engagement	-7013
__flavor	-7014
__biochemistry	-7015
__harmful	-7016
__defeated	-7017
__conducting	-7018
__soda	-7019
__classmate	-7020
__ashamed	-7021
__want	-7022
__ants	-7023
__cash	-7024
__james	-7025
__mid-november	-7026
__insurances	-7027
__initiated	-7028
__pharmacy	-7029
__minibar	-7030
__emphasis	-7031
__photographer	-7032
__dice	-7033
__vivacious	-7034
__batteries	-7035
__favour	-7036
__introduce	-7037
__carrier	-7038
__heard	-7039
__slide	-7040
__roles	-7041
__dents	-7042
__mascots	-7043
__dor	-7044
__sub	-7045
__trustworthy	-7046
__preferred	-7047
__260	-7048
__marks	-7049
__000	-7050
__engineers	-7051
__occasion	-7052
__biscuits	-7053
__miao	-7054
__eight	-7055
__unfilled	-7056
__clint	-7057
__truth	-7058
__above	-7059
__vatican	-7060
__giving	-7061
__recorded	-7062
__suspected	-7063
__easiest	-7064
__community	-7065
__octave	-7066
__sounded	-7067
__rectum	-7068
__:	-7069
__taiwan	-7070
__pronunciations	-7071
__contemporary	-7072
__heather	-7073
__splitting	-7074
__gloomy	-7075
__disease	-7076
__falls	-7077
__outdated	-7078
__classified	-7079
__brazil	-7080
__soap	-7081
__employees	-7082
__adding	-7083
__renting	-7084
__tens	-7085
__chocolate-covered	-7086
__kiang	-7087
__monger	-7088
__725	-7089
__13:00	-7090
__washed	-7091
__work	-7092
__upward	-7093
__joys	-7094
__theory	-7095
__loving	-7096
__solid	-7097
__click	-7098
__dutch	-7099
__prediction	-7100
__originated	-7101
__kidding	-7102
__stole	-7103
__celebration	-7104
__purposefully	-7105
__suddenly	-7106
__testing	-7107
__handing	-7108
__liu	-7109
__marquette	-7110
__teeth	-7111
__fairs	-7112
__saucers	-7113
__tuesday	-7114
__dirty	-7115
__wednesday	-7116
__quantitative	-7117
__together	-7118
__injury	-7119
__apologies	-7120
__shelley	-7121
__duty-free	-7122
__punching	-7123
__dorm	-7124
__proposal	-7125
__fur	-7126
__juices	-7127
__weatherman	-7128
__switch	-7129
__roller-skating	-7130
__actors	-7131
__birth	-7132
__necklace	-7133
__agree	-7134
__speakers	-7135
__governor	-7136
__stretching	-7137
__boat	-7138
__gaining	-7139
__11am	-7140
__somebody	-7141
__future	-7142
__head	-7143
__disgust	-7144
__wear	-7145
__civil	-7146
__crafted	-7147
__most	-7148
__lobby	-7149
__locus	-7150
__frank	-7151
__brand-new	-7152
__throughout	-7153
__pacific	-7154
__twelve	-7155
__disappointed	-7156
__flattered	-7157
__traveling	-7158
__saucepans	-7159
__season	-7160
__scores	-7161
__primarily	-7162
__operations	-7163
__ordinary	-7164
__barbecuing	-7165
__applause	-7166
__woody	-7167
__bungee	-7168
__agreeing	-7169
__patriotic	-7170
__pinpoint	-7171
__agreed	-7172
__cut	-7173
__dump	-7174
__inn	-7175
__blow	-7176
__rice	-7177
__guard	-7178
__tricks	-7179
__pleas	-7180
__stretch	-7181
__gatherings	-7182
__casual	-7183
__watching	-7184
__electronic	-7185
__morgan	-7186
__clam	-7187
__macintosh	-7188
__managed	-7189
__officials	-7190
__nonsense	-7191
__climb	-7192
__bank	-7193
__flashing	-7194
__complex	-7195
__nursing	-7196
__carpool	-7197
__yy	-7198
__twinkle	-7199
__20,000	-7200
__brings	-7201
__cough	-7202
__tiang	-7203
__kind	-7204
__next	-7205
__errands	-7206
__subjects	-7207
__generic	-7208
__clock	-7209
__tai	-7210
__toothbrushes	-7211
__washer	-7212
__graduated	-7213
__losing	-7214
__superior	-7215
__announce	-7216
__sally	-7217
__supermarket	-7218
__dedicated	-7219
__end	-7220
__stephany	-7221
__rearview	-7222
__carries	-7223
__efficiency	-7224
__adidas	-7225
__principle	-7226
__redouble	-7227
__carpeting	-7228
__admires	-7229
__speeding	-7230
__crud	-7231
__and	-7232
__courtroom	-7233
__del	-7234
__peanut	-7235
__kicking	-7236
__stroke	-7237
__fear	-7238
__primary	-7239
__formed	-7240
__adjust	-7241
__totaled	-7242
__carla	-7243
__peeing	-7244
__continuing	-7245
__armoire	-7246
__mathematics	-7247
__layovers	-7248
__hundredth	-7249
__toast	-7250
__aluminum	-7251
__suite	-7252
__ave	-7253
__on-line	-7254
__collect	-7255
__tutor	-7256
__enjoys	-7257
__administrative	-7258
__leaky	-7259
__ernest	-7260
__isabella	-7261
__249	-7262
__46	-7263
__memorial	-7264
__biology	-7265
__admiration	-7266
__offices	-7267
__manger	-7268
__knock	-7269
__snag	-7270
__content	-7271
__traveled	-7272
__$	-7273
__banking	-7274
__loaded	-7275
__braked	-7276
__kelly	-7277
__alongside	-7278
__pedal	-7279
__lay	-7280
__chimneys	-7281
__financing	-7282
__ceiling	-7283
__smoothies	-7284
__must	-7285
__surcharges	-7286
__cold	-7287
__us	-7288
__allocated	-7289
__bike	-7290
__luckier	-7291
__capsule	-7292
__frogs	-7293
__messes	-7294
__printing	-7295
__leadership	-7296
__wash	-7297
__aykroyd	-7298
__copywriter	-7299
__interviews	-7300
__far	-7301
__ounces	-7302
__colors	-7303
__worth	-7304
__hunch	-7305
__dragon	-7306
__4	-7307
__recommendation	-7308
__strictly	-7309
__lines	-7310
__802	-7311
__didn	-7312
__losses	-7313
__dollar	-7314
__sixth	-7315
__screen	-7316
__ange	-7317
__booked	-7318
__turkey	-7319
__hallway	-7320
__visited	-7321
__3800	-7322
__full-size	-7323
__thirtieth	-7324
__insist	-7325
__kara	-7326
__feast	-7327
__sq	-7328
__ribbon	-7329
__cuts	-7330
__yourselves	-7331
__considered	-7332
__flashy	-7333
__going	-7334
__reps	-7335
__calming	-7336
__americans	-7337
__strip	-7338
__absentee	-7339
__horror	-7340
__uses	-7341
__fitzgerald	-7342
__1977	-7343
__ireland	-7344
__liz	-7345
__almost	-7346
__1019	-7347
__remarried	-7348
__reasearch	-7349
__weigh	-7350
__till	-7351
__cram	-7352
__daughters	-7353
__key	-7354
__submit	-7355
__lux	-7356
__long-term	-7357
__tub	-7358
__sven	-7359
__goalie	-7360
__piano	-7361
__canteen	-7362
__personally	-7363
__francs	-7364
__seal	-7365
__selections	-7366
__publish	-7367
__helmets	-7368
__preparations	-7369
__exhilarating	-7370
__newspaper	-7371
__sliced	-7372
__exception	-7373
__poor	-7374
__sandwich	-7375
__lisinopril	-7376
__available	-7377
__connecticut	-7378
__knees	-7379
__therefore	-7380
__cramped	-7381
__pieces	-7382
__host	-7383
__died	-7384
__reporting	-7385
__1998	-7386
__slow	-7387
__mona	-7388
__there	-7389
__essential	-7390
__river	-7391
__spanish	-7392
__grown-ups	-7393
__man	-7394
__ice	-7395
__shirt	-7396
__alex	-7397
__dude	-7398
__showers	-7399
__nasty	-7400
__realtor	-7401
__countersign	-7402
__programmer	-7403
__surf	-7404
__pronunciation	-7405
__graduate	-7406
__blossoms	-7407
__seventeen	-7408
__killed	-7409
__literary	-7410
__dominoes	-7411
__dinnerware	-7412
__crackers	-7413
__eiffel	-7414
__taping	-7415
__open	-7416
__tickets	-7417
__mementoes	-7418
__thirty-eight	-7419
__seconds	-7420
__gan	-7421
__eel	-7422
__caring	-7423
__challenges	-7424
__interviewed	-7425
__vans	-7426
__kindergarten	-7427
__rings	-7428
__willie	-7429
__street	-7430
__printer	-7431
__through	-7432
__whenever	-7433
__yet	-7434
__these	-7435
__improvement	-7436
__physics	-7437
__7th	-7438
__champions	-7439
__curl	-7440
__baked	-7441
__mechwarrior	-7442
__blackout	-7443
__engaged	-7444
__branches	-7445
__suit	-7446
__survived	-7447
__guessed	-7448
__santa	-7449
__helping	-7450
__request	-7451
__indirect	-7452
__degrees	-7453
__moon	-7454
__challenging	-7455
__623	-7456
__tricky	-7457
__hands	-7458
__carreras	-7459
__western-style	-7460
__pulse	-7461
__cravat	-7462
__sandals	-7463
__yankees	-7464
__fantastic	-7465
__ae	-7466
__bench	-7467
__computer	-7468
__poached	-7469
__dmv	-7470
__rely	-7471
__warming	-7472
__grandson	-7473
__victory	-7474
__inform	-7475
__cards	-7476
__couple	-7477
__involves	-7478
__photographing	-7479
__amd	-7480
__distinguishing	-7481
__fred	-7482
__himself	-7483
__open-minded	-7484
__jerry	-7485
__ape	-7486
__blockbuster	-7487
__perfect	-7488
__staff	-7489
__consumer	-7490
__biggest	-7491
__trina	-7492
__friendly	-7493
__move-in	-7494
__typhoon	-7495
__fizz	-7496
__frisk	-7497
__openings	-7498
__millions	-7499
__mel	-7500
__local	-7501
__floor	-7502
__domingo	-7503
__beam	-7504
__tram	-7505
__earth	-7506
__pizza	-7507
__ploughs	-7508
__zina	-7509
__breasts	-7510
__breakthrough	-7511
__create	-7512
__trouble-free	-7513
__granted	-7514
__spa	-7515
__accuracy	-7516
__nutritionists	-7517
__emails	-7518
__nations	-7519
__joe	-7520
__maggie	-7521
__rub	-7522
__month	-7523
__curriculum	-7524
__points	-7525
__publishing	-7526
__melissa	-7527
__matching	-7528
__malibu	-7529
__mp3	-7530
__convenient	-7531
__mentioning	-7532
__food	-7533
__smoking	-7534
__enjoyable	-7535
__freaked	-7536
__lipstick	-7537
__dancers	-7538
__motorbike	-7539
__strange	-7540
__quantity	-7541
__wise	-7542
__objections	-7543
__er	-7544
__popeyes	-7545
__walter	-7546
__lpf	-7547
__obama	-7548
__extensive	-7549
__started	-7550
__hush	-7551
__tail	-7552
__trademark	-7553
__addresses	-7554
__chance	-7555
__ralph	-7556
__phillips	-7557
__olives	-7558
__examines	-7559
__election	-7560
__pink	-7561
__grandfather	-7562
__turns	-7563
__cheapest	-7564
__pendent	-7565
__finalized	-7566
__target	-7567
__nickels	-7568
__landy	-7569
__relieved	-7570
__stock	-7571
__photostat	-7572
__were	-7573
__letter	-7574
__treatment	-7575
__tianqiao	-7576
__rogers	-7577
__hmm	-7578
__retiring	-7579
__breath	-7580
__desperate	-7581
__apologize	-7582
__involve	-7583
__impressive	-7584
__song	-7585
__teaching	-7586
__lotus	-7587
__british	-7588
__overseas	-7589
__discourse	-7590
__unlisted	-7591
__jackie	-7592
__wild	-7593
__cloud	-7594
__increasingly	-7595
__ideal	-7596
__domicile	-7597
__aspirin	-7598
__bored	-7599
__removed	-7600
__rapidly	-7601
__weekly	-7602
__postman	-7603
__10:30	-7604
__closer	-7605
__check-up	-7606
__envelope	-7607
__2,500	-7608
__move	-7609
__levy	-7610
__sofa	-7611
__5th	-7612
__higgins	-7613
__grey	-7614
__bridesmaids	-7615
__corporate	-7616
__concluded	-7617
__tears	-7618
__exempt	-7619
__5:45	-7620
__bf	-7621
__date	-7622
__ghost	-7623
__ikebana	-7624
__hanks	-7625
__selling	-7626
__neighborhood	-7627
__shelly	-7628
__has	-7629
__relations	-7630
__supposed	-7631
__night	-7632
__failed	-7633
__voicemail	-7634
__etc	-7635
__terrific	-7636
__female	-7637
__belive	-7638
__bolognese	-7639
__ohp	-7640
__heath	-7641
__enriched	-7642
__assign	-7643
__lectures	-7644
__yell	-7645
__necessities	-7646
__knight	-7647
__travelling	-7648
__relive	-7649
__restaurant	-7650
__interesting	-7651
__iced	-7652
__mention	-7653
__purchasing	-7654
__careful	-7655
__audition	-7656
__harper	-7657
__erica	-7658
__groceries	-7659
__babies	-7660
__mommy	-7661
__towers	-7662
__dime	-7663
__indicates	-7664
__freezer	-7665
__contact	-7666
__fired	-7667
__shelled	-7668
__cracks	-7669
__unusual	-7670
__touring	-7671
__t	-7672
__partial	-7673
__lies	-7674
__revocation	-7675
__calvin	-7676
__billy	-7677
__color	-7678
__ringing	-7679
__linda	-7680
__took	-7681
__familiar	-7682
__goose	-7683
__co-workers	-7684
__heat-resistant	-7685
__relatives	-7686
__millie	-7687
__formalities	-7688
__precise	-7689
__hear	-7690
__custard	-7691
__onboard	-7692
__choices	-7693
__k-mart	-7694
__gig	-7695
__5.48	-7696
__champagne	-7697
__filing	-7698
__vacations	-7699
__hairbrushes	-7700
__true	-7701
__warm	-7702
__stewart	-7703
__solutions	-7704
__contains	-7705
__festival	-7706
__best-seller	-7707
__meetings	-7708
__repayment	-7709
__wheel	-7710
__atom	-7711
__panic	-7712
__barbecue	-7713
__hells	-7714
__drama	-7715
__carpio	-7716
__¥	-7717
__coffee	-7718
__atmosphere	-7719
__caller	-7720
__dorms	-7721
__dan	-7722
__pre-school	-7723
__supply	-7724
__ingredients	-7725
__vegetable	-7726
__cds	-7727
__medium	-7728
__cyclists	-7729
__spit	-7730
__regional	-7731
__club	-7732
__pine	-7733
__industrial	-7734
__vary	-7735
__textiles	-7736
__reasonable	-7737
__temple	-7738
__money	-7739
__parties	-7740
__am	-7741
__bedroom	-7742
__tia	-7743
__bang	-7744
__luxury	-7745
__needs	-7746
__calm	-7747
__stab	-7748
__lives	-7749
__specially	-7750
__boutiques	-7751
__22nd	-7752
__curd	-7753
__promise	-7754
__carpet	-7755
__essentials	-7756
__sign	-7757
__tasting	-7758
__policy	-7759
__latest	-7760
__robert	-7761
__generally	-7762
__please	-7763
__small	-7764
__ride	-7765
__vocational	-7766
__skirts	-7767
__taboo	-7768
__puff	-7769
__chi	-7770
__angeles	-7771
__women	-7772
__spraining	-7773
__humor	-7774
__examinations	-7775
__wits	-7776
__hoping	-7777
__finishing	-7778
__due	-7779
__minister	-7780
__randolph	-7781
__strategy	-7782
__chang	-7783
__wined	-7784
__blonde	-7785
__project	-7786
__photo	-7787
__directions	-7788
__hon	-7789
__quickest	-7790
__britain	-7791
__sacrifice	-7792
__trimming	-7793
__suggests	-7794
__euro	-7795
__ohm	-7796
__mall	-7797
__asleep	-7798
__thousand-year-old	-7799
__two-week	-7800
__rolex	-7801
__victoria	-7802
__approximately	-7803
__copier	-7804
__categories	-7805
__burning	-7806
__museum	-7807
__copied	-7808
__judging	-7809
__consideration	-7810
__fridges	-7811
__0.8	-7812
__display	-7813
__returning	-7814
__smelling	-7815
__deny	-7816
__crevices	-7817
__iron	-7818
__ballistic	-7819
__sep	-7820
__labor	-7821
__vancouver	-7822
__fun	-7823
__addition	-7824
__immediately	-7825
__that	-7826
__emperor	-7827
__softly	-7828
__black	-7829
__locations	-7830
__watson	-7831
__graduation	-7832
__radioactive	-7833
__anderson	-7834
__yapping	-7835
__one-week	-7836
__ship	-7837
__interviewers	-7838
__completely	-7839
__tiring	-7840
__tax	-7841
__cheese	-7842
__yor	-7843
__609	-7844
__centigrade	-7845
__hamilton	-7846
__mystery	-7847
__investigations	-7848
__afterward	-7849
__strong	-7850
__instead	-7851
__anticipate	-7852
__bellman	-7853
__paintings	-7854
__overdo	-7855
__wok	-7856
__mile	-7857
__identical	-7858
__compensate	-7859
__inspects	-7860
__elizabeth	-7861
__prune	-7862
__party	-7863
__sunken	-7864
__prefer	-7865
__lessened	-7866
__cozumel	-7867
__gradually	-7868
__cookies	-7869
__wrapped	-7870
__violent	-7871
__thermostat	-7872
__1-3	-7873
__elected	-7874
__tap	-7875
__chili	-7876
__onetime	-7877
__lifestyle	-7878
__coupons	-7879
__basket	-7880
__into	-7881
__lobster	-7882
__descriptions	-7883
__speaks	-7884
__bees	-7885
__fashionable	-7886
__frustrating	-7887
__doughnuts	-7888
__gallery	-7889
__sprint	-7890
__sources	-7891
__disadvantages	-7892
__catalog	-7893
__realistic	-7894
__anywhere	-7895
__border	-7896
__tamshui	-7897
__opinions	-7898
__pretending	-7899
__overflowed	-7900
__craft	-7901
__205	-7902
__femi	-7903
__employee	-7904
__1212	-7905
__edges	-7906
__air-conditioning	-7907
__correctly	-7908
__cup	-7909
__program	-7910
__jennifer	-7911
__after	-7912
__ninety-nine	-7913
__basement	-7914
__'	-7915
__late	-7916
__nissan	-7917
__1920s	-7918
__skim	-7919
__bedtime	-7920
__trying	-7921
__glossy	-7922
__jimmy	-7923
__hope	-7924
__230	-7925
__invests	-7926
__shredded	-7927
__nerves	-7928
__reaching	-7929
__jesus	-7930
__weed	-7931
__lonely	-7932
__world	-7933
__dresses	-7934
__outrageous	-7935
__winning	-7936
__lining	-7937
__director	-7938
__writer	-7939
__temper	-7940
__birthdays	-7941
__fields	-7942
__dc	-7943
__countertop	-7944
__adapted	-7945
__alive	-7946
__confirmation	-7947
__haircut	-7948
__cap	-7949
__which	-7950
__14:00	-7951
__1988	-7952
__bellow	-7953
__ginseng	-7954
__shaped	-7955
__eager	-7956
__currently	-7957
__obsolete	-7958
__beliefs	-7959
__dealt	-7960
__married	-7961
__circuit	-7962
__hearts	-7963
__speaking	-7964
__3	-7965
__tiananmen	-7966
__relative	-7967
__dvd	-7968
__mormon	-7969
__patio	-7970
__susan	-7971
__videos	-7972
__roy	-7973
__yoghurt	-7974
__hackers	-7975
__coca	-7976
__brain	-7977
__myra	-7978
__foam	-7979
__dreamed	-7980
__internal	-7981
__row	-7982
__spain	-7983
__portions	-7984
__whirligig	-7985
__accustomed	-7986
__cholesterol	-7987
__normally	-7988
__recognizing	-7989
__occasions	-7990
__brochures	-7991
__advertising	-7992
__costly	-7993
__many	-7994
__storm	-7995
__taxis	-7996
__twilight	-7997
__ready-made	-7998
__julia	-7999
__shared	-8000
__intentions	-8001
__beginner	-8002
__typewriter	-8003
__intersection	-8004
__brim	-8005
__roland	-8006
__cabinets	-8007
__argument	-8008
__needing	-8009
__americano	-8010
__lustre	-8011
__protect	-8012
__friday	-8013
__tapping	-8014
__consists	-8015
__control	-8016
__silk	-8017
__reorder	-8018
__hillside	-8019
__fighting	-8020
__studies	-8021
__over-the-counter	-8022
__scalded	-8023
__right	-8024
__self-supporting	-8025
__licence	-8026
__?	-8027
__dough	-8028
__chickens	-8029
__throwing	-8030
__rough	-8031
__gotta	-8032
__let	-8033
__jackson	-8034
__indispensible	-8035
__plain	-8036
__flour	-8037
__ghosts	-8038
__claire	-8039
__temporary	-8040
__gasoline	-8041
__jessie	-8042
__model	-8043
__waste	-8044
__hilda	-8045
__burnt	-8046
__lozenges	-8047
__cans	-8048
__seminar	-8049
__grove	-8050
__african	-8051
__parlor	-8052
__hijacked	-8053
__secretary	-8054
__flying	-8055
__junior	-8056
__jacob	-8057
__critic	-8058
__depress	-8059
__sauces	-8060
__shed	-8061
__poker	-8062
__wallpaper	-8063
__central	-8064
__remedies	-8065
__voyage	-8066
__ford	-8067
__text	-8068
__magazine	-8069
__clutched	-8070
__watched	-8071
__quotation	-8072
__lower	-8073
__consumed	-8074
__relatively	-8075
__bargains	-8076
__lasagna	-8077
__daily	-8078
__somewhere	-8079
__forest	-8080
__philip	-8081
__dieting	-8082
__yells	-8083
__apt	-8084
__mover	-8085
__bicycle	-8086
__cups	-8087
__origin	-8088
__anyhow	-8089
__toothache	-8090
__rochester	-8091
__discrimination	-8092
__inconvenient	-8093
__cancer	-8094
__tracking	-8095
__movie	-8096
__exporter	-8097
__libidos	-8098
__sob	-8099
__50000	-8100
__louder	-8101
__drill	-8102
__inquisitive	-8103
__kitchens	-8104
__buzzword	-8105
__hire	-8106
__aims	-8107
__sexy	-8108
__theological	-8109
__deliveries	-8110
__357	-8111
__vcr	-8112
__tobe	-8113
__shows	-8114
__desk	-8115
__kinds	-8116
__cause	-8117
__gracious	-8118
__fan	-8119
__limits	-8120
__normandy	-8121
__charge	-8122
__purchased	-8123
__as	-8124
__container	-8125
__turing	-8126
__hooked	-8127
__mia	-8128
__3:00	-8129
__illustrate	-8130
__perks	-8131
__euros	-8132
__budapest	-8133
__cheek	-8134
__providing	-8135
__happen	-8136
__motorway	-8137
__kitty	-8138
__waffles	-8139
__lacks	-8140
__mailed	-8141
__pesticides	-8142
__our	-8143
__claim	-8144
__awfully	-8145
__seine	-8146
__abdominal	-8147
__subtitles	-8148
__marge	-8149
__reconsidered	-8150
__proceed	-8151
__204	-8152
__prozac	-8153
__contained	-8154
__wu	-8155
__love	-8156
__www.google.com	-8157
__uptight	-8158
__comprehension	-8159
__strongest	-8160
__inquiry	-8161
__behaves	-8162
__knots	-8163
__385	-8164
__television	-8165
__christine	-8166
__funny	-8167
__field	-8168
__cheques	-8169
__is	-8170
__demonstrate	-8171
__sunscreen	-8172
__hurry	-8173
__barbeque	-8174
__procedures	-8175
__thames	-8176
__ray	-8177
__failure	-8178
__margarita	-8179
__meal	-8180
__qingdao	-8181
__carton	-8182
__skis	-8183
__ottawa	-8184
__yoga	-8185
__gives	-8186
__yachting	-8187
__breathes	-8188
__pond	-8189
__comfortable	-8190
__decrease	-8191
__seasonally	-8192
__delighted	-8193
__ikea	-8194
__tear	-8195
__beige	-8196
__underprivileged	-8197
__sorrows	-8198
__budget	-8199
__harmoniously	-8200
__one	-8201
__location	-8202
__walker	-8203
__pay	-8204
__market	-8205
__cancelled	-8206
__spell	-8207
__x6	-8208
__starbucks	-8209
__lung	-8210
__half-price	-8211
__mah	-8212
__22	-8213
__1405	-8214
__home	-8215
__young	-8216
__potter	-8217
__boats	-8218
__televisions	-8219
__tibet	-8220
__fell	-8221
__lighted	-8222
__commercials	-8223
__however	-8224
__porcelain	-8225
__tightening	-8226
__cabin	-8227
__overcoats	-8228
__high	-8229
__tinkering	-8230
__really	-8231
__r	-8232
__matter	-8233
__glowing	-8234
__racket	-8235
__agenda	-8236
__bad-tempered	-8237
__speak	-8238
__ours	-8239
__nights	-8240
__theater	-8241
__commuting	-8242
__training	-8243
__overweight	-8244
__katherine	-8245
__whole	-8246
__forgive	-8247
__salary	-8248
__sucking	-8249
__burst	-8250
__budge	-8251
__microcosm	-8252
__probable	-8253
__canceled	-8254
__carving	-8255
__tampons	-8256
__stated	-8257
__buyer	-8258
__gao	-8259
__nightclub	-8260
__knew	-8261
__baker	-8262
__widely	-8263
__repairs	-8264
__diane	-8265
__discussed	-8266
__4040	-8267
__springs	-8268
__wave	-8269
__emergencies	-8270
__qualified	-8271
__sam	-8272
__mmmm	-8273
__vest	-8274
__overrules	-8275
__khakis	-8276
__mandarin	-8277
__dividends	-8278
__positions	-8279
__nuclear	-8280
__characteristic	-8281
__graceful	-8282
__jumble	-8283
__rider	-8284
__largely	-8285
__torch	-8286
__eaves	-8287
__average	-8288
__booklet	-8289
__heighten	-8290
__colleague	-8291
__downloaded	-8292
__sweeter	-8293
__worthwhile	-8294
__extreme	-8295
__spicy	-8296
__speed	-8297
__stay	-8298
__1106	-8299
__haitian	-8300
__gained	-8301
__automobile	-8302
__specials	-8303
__updates	-8304
__visit	-8305
__negative	-8306
__joanne	-8307
__stree	-8308
__hits	-8309
__warning	-8310
__faster	-8311
__culinary	-8312
__genetics	-8313
__maya	-8314
__upset	-8315
__permanent	-8316
__depart	-8317
__pulling	-8318
__obvious	-8319
__hard	-8320
__saddles	-8321
__businesses	-8322
__barbie	-8323
__adventure	-8324
__zinc	-8325
__bet	-8326
__their	-8327
__victim	-8328
__clinic	-8329
__turntable	-8330
__difficulties	-8331
__traits	-8332
__bit	-8333
__catalogue	-8334
__existing	-8335
__11:09	-8336
__square	-8337
__chronic	-8338
__swapped	-8339
__mussolini	-8340
__em	-8341
__dial-up	-8342
__serial	-8343
__ophelia	-8344
__lite	-8345
__traditionally	-8346
__weakness	-8347
__seashore	-8348
__breather	-8349
__admire	-8350
__lau	-8351
__less	-8352
__development	-8353
__sarcastic	-8354
__poisonous	-8355
__harry	-8356
__protection	-8357
__masseuse	-8358
__heywood	-8359
__occur	-8360
__2003	-8361
__0.59	-8362
__headoffice	-8363
__cocaine	-8364
__walls	-8365
__coconut	-8366
__everything	-8367
__friendliness	-8368
__barking	-8369
__middle-aged	-8370
__hairdo	-8371
__liquid	-8372
__turned	-8373
__laundry	-8374
__lent	-8375
__starters	-8376
__left	-8377
__qu	-8378
__volunteering	-8379
__scandalous	-8380
__peter	-8381
__forgetting	-8382
__increases	-8383
__favorites	-8384
__historian	-8385
__honor	-8386
__achievement	-8387
__iq	-8388
__darks	-8389
__discreet	-8390
__ultraviolet	-8391
__surprised	-8392
__bells	-8393
__hart	-8394
__wool	-8395
__happiest	-8396
__maturity	-8397
__playing	-8398
__teamwork	-8399
__published	-8400
__ankle	-8401
__sachs	-8402
__fouls	-8403
__off-key	-8404
__exactly	-8405
__awhile	-8406
__steward	-8407
__pi	-8408
__36.00	-8409
__toy	-8410
__self-esteem	-8411
__exchanging	-8412
__shall	-8413
__slicing	-8414
__success	-8415
__rent	-8416
__contrary	-8417
__item	-8418
__fly	-8419
__exact	-8420
__fob	-8421
__exaggerating	-8422
__competitive	-8423
__4:00	-8424
__guangdong	-8425
__competition	-8426
__compartment	-8427
__troubles	-8428
__”	-8429
__enrollment	-8430
__tan	-8431
__document	-8432
__corrugated	-8433
__paula	-8434
__eat	-8435
__lover	-8436
__tattoo	-8437
__tray	-8438
__belief	-8439
__months	-8440
__journals	-8441
__khaki	-8442
__tile	-8443
__nauseous	-8444
__850	-8445
__blogging	-8446
__payable	-8447
__kill	-8448
__violate	-8449
__xinhua	-8450
__3m	-8451
__american	-8452
__stamp	-8453
__italian	-8454
__curb	-8455
__pan	-8456
__fence	-8457
__organizational	-8458
__method	-8459
__profit	-8460
__hob	-8461
__candied	-8462
__odd	-8463
__across	-8464
__trunk	-8465
__deadlines	-8466
__dogs	-8467
__heroes	-8468
__nicer	-8469
__temperature	-8470
__oscar	-8471
__participated	-8472
__suited	-8473
__workshop	-8474
__syrup	-8475
__queen	-8476
__palm	-8477
__last	-8478
__sport	-8479
__beaver	-8480
__publicity	-8481
__vanilla	-8482
__seeing	-8483
__rachel	-8484
__became	-8485
__captivating	-8486
__treats	-8487
__fireman	-8488
__squirrel	-8489
__period	-8490
__16	-8491
__desserts	-8492
__yeah	-8493
__abc	-8494
__treated	-8495
__dust	-8496
__floods	-8497
__apples	-8498
__seventy-five	-8499
__join	-8500
__swollen	-8501
__huanghe	-8502
__beg	-8503
__sure	-8504
__strawberries	-8505
__tidy	-8506
__one-third	-8507
__scheme	-8508
__maker	-8509
__attached	-8510
__audiences	-8511
__useless	-8512
__approaching	-8513
__handset	-8514
__seat	-8515
__dialect	-8516
__pills	-8517
__accomplish	-8518
__discounts	-8519
__ohio	-8520
__sucker	-8521
__extensions	-8522
__thread	-8523
__tiny	-8524
__zeros	-8525
__unfair	-8526
__mignon	-8527
__insert	-8528
__optometry	-8529
__german	-8530
__oil	-8531
__regretted	-8532
__austen	-8533
__non-stop	-8534
__listing	-8535
__domestic	-8536
__horses	-8537
__without	-8538
__save	-8539
__seriously	-8540
__pancakes	-8541
__402	-8542
__dvds	-8543
__borrowed	-8544
__november	-8545
__lettuce	-8546
__redo	-8547
__chick	-8548
__disconnect	-8549
__nick	-8550
__8	-8551
__float	-8552
__hats	-8553
__bull	-8554
__madly	-8555
__whiskey	-8556
__against	-8557
__install	-8558
__seize	-8559
__rounds	-8560
__membership	-8561
__piece	-8562
__neighborhoods	-8563
__420	-8564
__jams	-8565
__prescriptions	-8566
__hopes	-8567
__designers	-8568
__grandparents	-8569
__highland	-8570
__see	-8571
__pose	-8572
__mcdonald	-8573
__refundable	-8574
__disturb	-8575
__beating	-8576
__slightly	-8577
__exam	-8578
__carburetor	-8579
__503	-8580
__nut	-8581
__2500	-8582
__lustrous	-8583
__side	-8584
__mural	-8585
__law	-8586
__scratch	-8587
__supports	-8588
__sales	-8589
__adams	-8590
__uncomfortable	-8591
__climbing	-8592
__maxed	-8593
__aunts	-8594
__leasing	-8595
__amanda	-8596
__happened	-8597
__classes	-8598
__tofu	-8599
__laura	-8600
__magnificent	-8601
__initial	-8602
__protein	-8603
__souvenirs	-8604
__adults	-8605
__attic	-8606
__robber	-8607
__mushy	-8608
__dispose	-8609
__mobile	-8610
__snails	-8611
__boards	-8612
__neck	-8613
__triple	-8614
__sirs	-8615
__deserves	-8616
__glad	-8617
__charlotte	-8618
__fiddle	-8619
__5:30	-8620
__cooke	-8621
__shyness	-8622
__slippery	-8623
__hobbies	-8624
__vehicle	-8625
__preservation	-8626
__relieve	-8627
__promoting	-8628
__3:30	-8629
__airsickness	-8630
__memo	-8631
__shen	-8632
__number	-8633
__scratches	-8634
__aisles	-8635
__consultant	-8636
__sniffer	-8637
__cherry	-8638
__ganja	-8639
__damaged	-8640
__better	-8641
__able	-8642
__neglected	-8643
__line-up	-8644
__remaining	-8645
__tourists	-8646
__projected	-8647
__reached	-8648
__millionaire	-8649
__teel	-8650
__incorporated	-8651
__ladybugs	-8652
__ow	-8653
__slot	-8654
__cal	-8655
__rest	-8656
__enter	-8657
__packet	-8658
__strait	-8659
__airsick	-8660
__shelf	-8661
__naomi	-8662
__athletic	-8663
__slanting	-8664
__mike	-8665
__reserve	-8666
__face-to-face	-8667
__scored	-8668
__strategic	-8669
__212	-8670
__amateur	-8671
__results	-8672
__delphi	-8673
__thickening	-8674
__madrid	-8675
__engines	-8676
__adventurous	-8677
__keeper	-8678
__rent-a-car	-8679
__serve	-8680
__wassermann	-8681
__breakdown	-8682
__hi	-8683
__cutbacks	-8684
__white	-8685
__evening	-8686
__windsurfers	-8687
__leisure	-8688
__doctor	-8689
__geese	-8690
__attracted	-8691
__ladies	-8692
__graphics	-8693
__ward	-8694
__harder	-8695
__jail	-8696
__short	-8697
__revolving	-8698
__pain	-8699
__apparent	-8700
__settlement	-8701
__dunned	-8702
__tastier	-8703
__imagine	-8704
__camping	-8705
__politely	-8706
__brooch	-8707
__meningitis	-8708
__mounting	-8709
__tony	-8710
__selecting	-8711
__terminal	-8712
__april	-8713
__never	-8714
__wendy	-8715
__does	-8716
__10	-8717
__enclose	-8718
__resistance	-8719
__eileen	-8720
__relates	-8721
__cheating	-8722
__defines	-8723
__groups	-8724
__literature	-8725
__cz	-8726
__kinda	-8727
__social	-8728
__cream	-8729
__deodorant	-8730
__shing	-8731
__landscape	-8732
__botanical	-8733
__genes	-8734
__sheep	-8735
__announcement	-8736
__miami	-8737
__digital	-8738
__treat	-8739
__label	-8740
__english	-8741
__lesson	-8742
__indoors	-8743
__xinjiang	-8744
__exams	-8745
__latin	-8746
__pool	-8747
__hughes	-8748
__three-bedroom	-8749
__leaves	-8750
__pharmacist	-8751
__boating	-8752
__jungle	-8753
__cradle	-8754
__destroy	-8755
__candidate	-8756
__year-end	-8757
__accommodations	-8758
__smoker	-8759
__operated	-8760
__deliver	-8761
__report	-8762
__aim	-8763
__maria	-8764
__buddy	-8765
__passive	-8766
__soccer	-8767
__simon	-8768
__arrive	-8769
__awesome	-8770
__everyone	-8771
__hamburgers	-8772
__chopsticks	-8773
__clothing	-8774
__drips	-8775
__wang	-8776
__remove	-8777
__access	-8778
__influenza	-8779
__silence	-8780
__touching	-8781
__energy	-8782
__tender	-8783
__links	-8784
__tourist	-8785
__chan	-8786
__fruitless	-8787
__floating	-8788
__dispensary	-8789
__foil	-8790
__meets	-8791
__scanty	-8792
__per	-8793
__cpc	-8794
__shirley	-8795
__corn	-8796
__silver	-8797
__dishes	-8798
__fabric	-8799
__inflamed	-8800
__serving	-8801
__desks	-8802
__charm	-8803
__rapist	-8804
__convenience	-8805
__communications	-8806
__multiplied	-8807
__storyline	-8808
__servant	-8809
__repaired	-8810
__contacting	-8811
__grease	-8812
__gossip	-8813
__tyre	-8814
__shade	-8815
__monday	-8816
__cook	-8817
__demand	-8818
__registering	-8819
__cocktail	-8820
__serous	-8821
__laptops	-8822
__map	-8823
__0	-8824
__creativity	-8825
__shopped	-8826
__cried	-8827
__pro	-8828
__respects	-8829
__instant	-8830
__ignition	-8831
__polite	-8832
__article	-8833
__arrange	-8834
__pros	-8835
__yao	-8836
__behalf	-8837
__satin	-8838
__franc	-8839
__tell	-8840
__box	-8841
__250	-8842
__computerised	-8843
__temples	-8844
__must-see	-8845
__herman	-8846
__recuperate	-8847
__bookstore	-8848
__victor	-8849
__rise	-8850
__session	-8851
__gay	-8852
__aloud	-8853
__biking	-8854
__ragged	-8855
__waffle	-8856
__borrowing	-8857
__applications	-8858
__atlantic	-8859
__deductible	-8860
__problems	-8861
__build	-8862
__sits	-8863
__handout	-8864
__brook	-8865
__maps	-8866
__celebrating	-8867
__perhaps	-8868
__sufficient	-8869
__ten	-8870
__fax	-8871
__supervisor	-8872
__simplified	-8873
__sir	-8874
__yang	-8875
__porterhouse	-8876
__peterson	-8877
__parking	-8878
__confident	-8879
__smashed	-8880
__linguistics	-8881
__nearest	-8882
__full-day	-8883
__revenue	-8884
__moderate	-8885
__800	-8886
__cabbage	-8887
__liberty	-8888
__risk	-8889
__finals	-8890
__receiver	-8891
__80	-8892
__optional	-8893
__punk	-8894
__handsets	-8895
__landlord	-8896
__let-down	-8897
__listening	-8898
__excellent	-8899
__activities	-8900
__hawthorne	-8901
__activate	-8902
__ram	-8903
__email	-8904
__went	-8905
__cycles	-8906
__listed	-8907
__overturned	-8908
__obtain	-8909
__honors	-8910
__blanket	-8911
__property	-8912
__popularity	-8913
__closely	-8914
__altitude	-8915
__job-related	-8916
__gmat	-8917
__matisse	-8918
__impressed	-8919
__bon	-8920
__massages	-8921
__peony	-8922
__them	-8923
__honorable	-8924
__by	-8925
__confidence	-8926
__another	-8927
__teacher	-8928
__tuition	-8929
__behavior	-8930
__pattern	-8931
__pilot	-8932
__legal	-8933
__collections	-8934
__wireless	-8935
__346	-8936
__everywhere	-8937
__pitches	-8938
__sticky	-8939
__hans	-8940
__splash	-8941
__medals	-8942
__actual	-8943
__independently	-8944
__evaluation	-8945
__universal	-8946
__terrible	-8947
__binders	-8948
__boris	-8949
__adjustments	-8950
__topic	-8951
__examination	-8952
__clearing	-8953
__adores	-8954
__days	-8955
__re	-8956
__lend	-8957
__dialed	-8958
__mechanic	-8959
__pension	-8960
__cropped	-8961
__bad	-8962
__sixty-five	-8963
__shut	-8964
__aren	-8965
__emitted	-8966
__blanks	-8967
__1,616	-8968
__nausea	-8969
__toothbrush	-8970
__all-american	-8971
__deleted	-8972
__puzzles	-8973
__hm	-8974
__crisp	-8975
__useful	-8976
__figured	-8977
__shell	-8978
__faith	-8979
__awake	-8980
__flames	-8981
__scale	-8982
__filling	-8983
__split	-8984
__encouragement	-8985
__quietly	-8986
__assist	-8987
__all	-8988
__christy	-8989
__ya	-8990
__keys	-8991
__more	-8992
__bought	-8993
__sundays	-8994
__reputed	-8995
__ding	-8996
__plumber	-8997
__limping	-8998
__loan	-8999
__toe	-9000
__chou	-9001
__borrow	-9002
__exhibitions	-9003
__viewing	-9004
__eastwood	-9005
__24.50	-9006
__portobello	-9007
__beside	-9008
__donor	-9009
__2007	-9010
__plc	-9011
__edelweiss	-9012
__johnson	-9013
__300,000	-9014
__notebook	-9015
__ducks	-9016
__medicine	-9017
__signature	-9018
__transformer	-9019
__shuttlecock	-9020
__yummy	-9021
__vending	-9022
__thirteenth	-9023
__hovering	-9024
__tells	-9025
__scheduled	-9026
__logo	-9027
__cab	-9028
__committee	-9029
__locker	-9030
__scented	-9031
__board	-9032
__division	-9033
__hemingway	-9034
__nachos	-9035
__culture	-9036
__stomachaches	-9037
__propose	-9038
__wallowing	-9039
__coaster	-9040
__answering	-9041
__about	-9042
__turnaround	-9043
__art	-9044
__nostalgic	-9045
__valuables	-9046
__closed	-9047
__fortunately	-9048
__crap	-9049
__province	-9050
__regret	-9051
__chalk	-9052
__grill	-9053
__regard	-9054
__gilly	-9055
__frankly	-9056
__change	-9057
__forests	-9058
__wanting	-9059
__101	-9060
__afford	-9061
__ovens	-9062
__uk	-9063
__cameras	-9064
__replied	-9065
__fences	-9066
__stuffed	-9067
__carmichael	-9068
__communicate	-9069
__banned	-9070
__physical	-9071
__progress	-9072
__eats	-9073
__dreaming	-9074
__vicki	-9075
__heel	-9076
__come	-9077
__invented	-9078
__tonic	-9079
__erect	-9080
__tutoring	-9081
__5	-9082
__9am	-9083
__jason	-9084
__clean	-9085
__entree	-9086
__embarrass	-9087
__sauna	-9088
__scientific	-9089
__ones	-9090
__battered	-9091
__five-minute	-9092
__dose	-9093
__counselors	-9094
__surprise	-9095
__rose	-9096
__gastric	-9097
__luck	-9098
__satisfy	-9099
__space	-9100
__line	-9101
__delicious	-9102
__chairing	-9103
__hers	-9104
__step	-9105
__hao	-9106
__grapes	-9107
__embarrassing	-9108
__enemies	-9109
__take	-9110
__jurgen	-9111
__39	-9112
__rip	-9113
__maths	-9114
__couples	-9115
__stressed	-9116
__memories	-9117
__medal	-9118
__efficiently	-9119
__leopard	-9120
__clone	-9121
__seasons	-9122
__announced	-9123
__87	-9124
__parks	-9125
__insignificant	-9126
__compliment	-9127
__slightest	-9128
__beidaihe	-9129
__hood	-9130
__positive	-9131
__refreshments	-9132
__william	-9133
__forbid	-9134
__bath	-9135
__type	-9136
__croft	-9137
__sashimi	-9138
__gathering	-9139
__elaborate	-9140
__ointment	-9141
__pets	-9142
__mates	-9143
__gentleman	-9144
__heights	-9145
__happens	-9146
__cleaned	-9147
__park	-9148
__one-inch	-9149
__planner	-9150
__alpha	-9151
__helps	-9152
__janet	-9153
__sit	-9154
__interviewing	-9155
__lifetime	-9156
__hikers	-9157
__riverside	-9158
__snack	-9159
__photocopies	-9160
__afraid	-9161
__t-shirt	-9162
__elly	-9163
__sense	-9164
__card	-9165
__34	-9166
__musician	-9167
__contestants	-9168
__likely	-9169
__clouds	-9170
__fashions	-9171
__account	-9172
__doubts	-9173
__alcohol	-9174
__previous	-9175
__tidiest	-9176
__forgot	-9177
__attended	-9178
__preservatives	-9179
__psychologists	-9180
__reflecting	-9181
__woodlawn	-9182
__colds	-9183
__standard	-9184
__coughing	-9185
__nearby	-9186
__prepaying	-9187
__if	-9188
__110.00	-9189
__remembered	-9190
__cd	-9191
__buddies	-9192
__murphy	-9193
__paralympics	-9194
__jc	-9195
__z	-9196
__expecting	-9197
__rainy	-9198
__design	-9199
__makes	-9200
__pledge	-9201
__sixties	-9202
__so	-9203
__innovation	-9204
__sms	-9205
__instructions	-9206
__had	-9207
__shortest	-9208
__becker	-9209
__shi	-9210
__appeals	-9211
__web	-9212
__compiling	-9213
__vet	-9214
__aerobics	-9215
__boys	-9216
__hanging	-9217
__navigation	-9218
__taken	-9219
__grandchildren	-9220
__cookouts	-9221
__clark	-9222
__4th	-9223
__promotes	-9224
__drunken	-9225
__quid	-9226
__robbery	-9227
__over	-9228
__third	-9229
__passbook	-9230
__spoiled	-9231
__colorful	-9232
__fifty-eight	-9233
__harassment	-9234
__squire	-9235
__henry	-9236
__scooters	-9237
__hold	-9238
__patrons	-9239
__buyers	-9240
__sheets	-9241
__bigger	-9242
__myrdal	-9243
__ending	-9244
__admiring	-9245
__diligence	-9246
__benson	-9247
__28th	-9248
__pb	-9249
__lilly	-9250
__mistake	-9251
__sacking	-9252
__+	-9253
__evil	-9254
__four	-9255
__creative	-9256
__intelligent	-9257
__ex-wife	-9258
__emory	-9259
__cosmo	-9260
__northern	-9261
__america	-9262
__pole	-9263
__attainment	-9264
__flores	-9265
__vision	-9266
__accidents	-9267
__aback	-9268
__nicola	-9269
__underground	-9270
__superiors	-9271
__flextime	-9272
__mousse	-9273
__ucla	-9274
__9.15	-9275
__mails	-9276
__mom	-9277
__hunting	-9278
__halfway	-9279
__mac	-9280
__strawberry	-9281
__understood	-9282
__carrefour	-9283
__auction	-9284
__weekends	-9285
__withdraw	-9286
__growth	-9287
__explanation	-9288
__reflects	-9289
__guy	-9290
__doubled	-9291
__always	-9292
__12:05	-9293
__qi	-9294
__slows	-9295
__identification	-9296
__parlour	-9297
__films	-9298
__cloth	-9299
__tow	-9300
__tomorrow	-9301
__informed	-9302
__ayden	-9303
__foreigners	-9304
__continued	-9305
__dressmakers	-9306
__overwork	-9307
__wants	-9308
__send	-9309
__nikon	-9310
__dandelions	-9311
__students	-9312
__julianne	-9313
__healing	-9314
__sum	-9315
__crackling	-9316
__tract	-9317
__fair-haired	-9318
__16:35	-9319
__today	-9320
__proved	-9321
__jim	-9322
__increase	-9323
__student	-9324
__household	-9325
__records	-9326
__extension	-9327
__talker	-9328
__samples	-9329
__paper	-9330
__note	-9331
__responses	-9332
__chadwick	-9333
__fares	-9334
__9:10	-9335
__runaround	-9336
__3600	-9337
__crispy	-9338
__continue	-9339
__can	-9340
__smallest	-9341
__bonuses	-9342
__fries	-9343
__puzzled	-9344
__skirt	-9345
__6	-9346
__dos	-9347
__vitamin	-9348
__quite	-9349
__arthur	-9350
__zhongshan	-9351
__specify	-9352
__bunch	-9353
__installments	-9354
__rockery	-9355
__assume	-9356
__cloakroom	-9357
__shakespeare	-9358
__differently	-9359
__thing	-9360
__obtained	-9361
__push	-9362
__channels	-9363
__tem	-9364
__parrot	-9365
__momentarily	-9366
__56,000	-9367
__parcels	-9368
__drops	-9369
__brought	-9370
__requests	-9371
__expired	-9372
__banning	-9373
__meters	-9374
__compete	-9375
__alaska	-9376
__pursuing	-9377
__fifty-nine	-9378
__shanghai	-9379
__wax	-9380
__anger	-9381
__elegant	-9382
__bound	-9383
__pencils	-9384
__sports	-9385
__swear	-9386
__crying	-9387
__iris	-9388
__loudly	-9389
__flickers	-9390
__toefl	-9391
__further	-9392
__books	-9393
__star	-9394
__select	-9395
__strangers	-9396
__lemon	-9397
__uncommon	-9398
__snowy	-9399
__continuously	-9400
__wakes	-9401
__unfamiliar	-9402
__damages	-9403
__hongbo	-9404
__shoes	-9405
__mode	-9406
__unhealthy	-9407
__appetite	-9408
__run-down	-9409
__year-old	-9410
__least	-9411
__apes	-9412
__outlet	-9413
__picking	-9414
__uniforms	-9415
__profile	-9416
__skies	-9417
__cubes	-9418
__immigrants	-9419
__snow	-9420
__waited	-9421
__used	-9422
__court	-9423
__nobody	-9424
__frenchman	-9425
__joining	-9426
__narrow-minded	-9427
__laid	-9428
__cooking	-9429
__dryer	-9430
__pushcart	-9431
__85	-9432
__claus	-9433
__review	-9434
__ufos	-9435
__hostess	-9436
__unnecessary	-9437
__wares	-9438
__crafts	-9439
__accessible	-9440
__assignments	-9441
__sirloin	-9442
__frames	-9443
__easter	-9444
__fennel	-9445
__quote	-9446
__tearing	-9447
__generate	-9448
__idioms	-9449
__walk-through	-9450
__agriculture	-9451
__ouch	-9452
__signposts	-9453
__fortune	-9454
__leather	-9455
__deals	-9456
__visa	-9457
__burger	-9458
__abortion	-9459
__shipment	-9460
__swept	-9461
__created	-9462
__situation	-9463
__twenty-five	-9464
__second-hand	-9465
__pat	-9466
__brakes	-9467
__adopted	-9468
__burglaries	-9469
__pounds	-9470
__eh	-9471
__lasts	-9472
__pamphlet	-9473
__horseback	-9474
__non-smoking	-9475
__motor	-9476
__jill	-9477
__akha	-9478
__spade	-9479
__massive	-9480
__basing	-9481
__10:00	-9482
__peace	-9483
__holy	-9484
__umbrellas	-9485
__brush	-9486
__parcel	-9487
__immigration	-9488
__champ	-9489
__boa	-9490
__hotels	-9491
__forced	-9492
__lighten	-9493
__fridge	-9494
__lilies	-9495
__poisoning	-9496
__men	-9497
__wimpy	-9498
__sale	-9499
__collecting	-9500
__posters	-9501
__kristy	-9502
__ok	-9503
__controlled	-9504
__boxes	-9505
__486	-9506
__knee	-9507
__gun	-9508
__crazy	-9509
__heaven	-9510
__darling	-9511
__evaluate	-9512
__barathea	-9513
__liang	-9514
__critical	-9515
__deutsche	-9516
__winking	-9517
__recently	-9518
__cathy	-9519
__recycling	-9520
__improving	-9521
__fruits	-9522
__again	-9523
__weird	-9524
__hoops	-9525
__fund	-9526
__plug	-9527
__temping	-9528
__motorists	-9529
__conference	-9530
__bikes	-9531
__gpa	-9532
__may	-9533
__beginning	-9534
__where	-9535
__bamboo	-9536
__flies	-9537
__given	-9538
__condition	-9539
__florence	-9540
__napkin	-9541
__south-east	-9542
__mozzarella	-9543
__times	-9544
__phillip	-9545
__rome	-9546
__mix	-9547
__definite	-9548
__indistinct	-9549
__1500	-9550
__xeroxing	-9551
__spaghetti	-9552
__brad	-9553
__pepper	-9554
__millennium	-9555
__dutton	-9556
__buff	-9557
__brief	-9558
__montgomery	-9559
__georgetown	-9560
__feelings	-9561
__southbound	-9562
__walks	-9563
__thirties	-9564
__classics	-9565
__sucks	-9566
__560	-9567
__representative	-9568
__ages	-9569
__barkley	-9570
__permitted	-9571
__horn	-9572
__saving	-9573
__destroyed	-9574
__security	-9575
__fishing	-9576
__boss	-9577
__pouring	-9578
__margaret	-9579
__drifting	-9580
__release	-9581
__bat	-9582
__routine	-9583
__cocktails	-9584
__nickel	-9585
__twenty-seven	-9586
__wage	-9587
__4,000	-9588
__sox	-9589
__croutons	-9590
__motive	-9591
__underneath	-9592
__vigilance	-9593
__restriction	-9594
__facilities	-9595
__necessary	-9596
__exercising	-9597
__personable	-9598
__curls	-9599
__wire	-9600
__searching	-9601
__virtue	-9602
__static	-9603
__airmail	-9604
__closes	-9605
__drive	-9606
__supervising	-9607
__eyesight	-9608
__broadcast	-9609
__maggy	-9610
__war	-9611
__husband	-9612
__4x100	-9613
__considering	-9614
__teaches	-9615
__congratulation	-9616
__separately	-9617
__contractors	-9618
__secondly	-9619
__9:05	-9620
__first-time	-9621
__dye	-9622
__recent	-9623
__petrochemical	-9624
__senior	-9625
__communicates	-9626
__tidied	-9627
__hardware	-9628
__undergraduates	-9629
__forex	-9630
__importance	-9631
__£	-9632
__tangyuan	-9633
__pcc	-9634
__computers	-9635
__skating	-9636
__donna	-9637
__blame	-9638
__metal	-9639
__operating	-9640
__impossible	-9641
__depositing	-9642
__appears	-9643
__make-up	-9644
__looking	-9645
__puts	-9646
__spends	-9647
__won	-9648
__craftsman	-9649
__fifteenth	-9650
__absorbed	-9651
__clogs	-9652
__several	-9653
__guts	-9654
__kissing	-9655
__author	-9656
__pipe	-9657
__rocks	-9658
__while	-9659
__nicest	-9660
__541	-9661
__roasting	-9662
__sounding	-9663
__connections	-9664
__conquer	-9665
__acted	-9666
__intense	-9667
__wore	-9668
__wanted	-9669
__combined	-9670
__the	-9671
__stubs	-9672
__spider	-9673
__wealthy	-9674
__yup	-9675
__premium	-9676
__jacket	-9677
__wooden	-9678
__rolodex	-9679
__inbreeding	-9680
__coated	-9681
__anna	-9682
__admit	-9683
__kick	-9684
__bitter	-9685
__festivities	-9686
__gleason	-9687
__booth	-9688
__considerate	-9689
__eating	-9690
__resent	-9691
__120,000	-9692
__holly	-9693
__smells	-9694
__trinkets	-9695
__reason	-9696
__thoughtful	-9697
__understand	-9698
__fall	-9699
__attend	-9700
__scheduling	-9701
__2009	-9702
__self-confidence	-9703
__ruthless	-9704
__bridesmaid	-9705
__check-in	-9706
__breakthroughs	-9707
__outdoor	-9708
__telco	-9709
__incentive	-9710
__proud	-9711
__w	-9712
__insinuated	-9713
__washers	-9714
__capital	-9715
__supplier	-9716
__exceptionally	-9717
__umbrella	-9718
__bores	-9719
__charming	-9720
__skiing	-9721
__lifesaver	-9722
__suggested	-9723
__puppy	-9724
__techne	-9725
__grooming	-9726
__chubbier	-9727
__anthem	-9728
__mornings	-9729
__partying	-9730
__informing	-9731
__transit	-9732
__official	-9733
__lili	-9734
__real	-9735
__risky	-9736
__team	-9737
__plymouth	-9738
__dark	-9739
__diuretic	-9740
__newly	-9741
__brave	-9742
__belongs	-9743
__dearly	-9744
__quarreling	-9745
__lunchroom	-9746
__litter	-9747
__excuse	-9748
__diameter	-9749
__indeed	-9750
__covering	-9751
__complements	-9752
__educators	-9753
__interruptions	-9754
__stories	-9755
__westerners	-9756
__amenities	-9757
__fortnight	-9758
__gonna	-9759
__secure	-9760
__pavilion	-9761
__21.3	-9762
__pessimistic	-9763
__redeeming	-9764
__keen	-9765
__solo	-9766
__30	-9767
__restocked	-9768
__checkers	-9769
__confirmed	-9770
__payroll	-9771
__presidential	-9772
__3,000	-9773
__olympics	-9774
__surrounding	-9775
__stomach	-9776
__button	-9777
__taiwanese	-9778
__simpson	-9779
__campus	-9780
__touchdown	-9781
__close	-9782
__york	-9783
__weren	-9784
__middling	-9785
__fairly	-9786
__boasting	-9787
__architecture	-9788
__bee	-9789
__fundraisers	-9790
__aspect	-9791
__sandalwood	-9792
__decorate	-9793
__graphic	-9794
__quiz	-9795
__walked	-9796
__pie	-9797
__implement	-9798
__swedish	-9799
__exporting	-9800
__rank	-9801
__notification	-9802
__hedge	-9803
__look	-9804
__505	-9805
__optical	-9806
__eng	-9807
__11.30	-9808
__southampton	-9809
__predicted	-9810
__mentally	-9811
__fastback	-9812
__traps	-9813
__fifties	-9814
__mailmen	-9815
__wholesale	-9816
__telecast	-9817
__fits	-9818
__tiles	-9819
__fact	-9820
__kindness	-9821
__bulk	-9822
__dividend	-9823
__fighter	-9824
__215	-9825
__measurements	-9826
__grams	-9827
__discharged	-9828
__soup	-9829
__communicating	-9830
__jesse	-9831
__bonkers	-9832
__bankbook	-9833
__mainlines	-9834
__signs	-9835
__walking	-9836
__personalities	-9837
__demeanor	-9838
__stronger	-9839
__museums	-9840
__professors	-9841
__repairman	-9842
__econ	-9843
__soups	-9844
__cool	-9845
__cramming	-9846
__warrant	-9847
__smaller	-9848
__forming	-9849
__sink	-9850
__george	-9851
__reads	-9852
__circle	-9853
__gospel	-9854
__shoulder	-9855
__traveler	-9856
__lens	-9857
__navy	-9858
__urinary	-9859
__limit	-9860
__refreshing	-9861
__spoil	-9862
__peaceful	-9863
__be	-9864
__burn	-9865
__plus	-9866
__appetizing	-9867
__convertible	-9868
__genius	-9869
__movements	-9870
__reception	-9871
__habits	-9872
__blink	-9873
__polish	-9874
__alarm	-9875
__motorcycle	-9876
__melons	-9877
__noticed	-9878
__timer	-9879
__dunlin	-9880
__wrinkles	-9881
__crowded	-9882
__lose	-9883
__ugh	-9884
__car	-9885
__differences	-9886
__candle	-9887
__player	-9888
__attach	-9889
__bittersweet	-9890
__daytime	-9891
__shutting	-9892
__boil	-9893
__fed	-9894
__possibility	-9895
__fundraiser	-9896
__bottom	-9897
__sanitation	-9898
__bringing	-9899
__super	-9900
__past	-9901
__bird	-9902
__leg	-9903
__hour	-9904
__elvin	-9905
__tomlinson	-9906
__easier	-9907
__afternoons	-9908
__looked	-9909
__peak	-9910
__verry	-9911
__perfection	-9912
__pence	-9913
__whose	-9914
__diamonds	-9915
__worthy	-9916
__good-bye	-9917
__tax-free	-9918
__chewing	-9919
__elect	-9920
__rush	-9921
__narrow	-9922
__thompsons	-9923
__trained	-9924
__wanna	-9925
__salon	-9926
__make	-9927
__bold	-9928
__tons	-9929
__christin	-9930
__boob	-9931
__organizations	-9932
__bathtub	-9933
__squids	-9934
__audio-visual	-9935
__forth	-9936
__namely	-9937
__mango	-9938
__fanatics	-9939
__looters	-9940
__anti-virus	-9941
__gin	-9942
__mario	-9943
__decade	-9944
__shan	-9945
__perfume	-9946
__violence	-9947
__said	-9948
__slowly	-9949
__planning	-9950
__stuff	-9951
__limousines	-9952
__entertainment	-9953
__importantly	-9954
__nirvana	-9955
__scholarships	-9956
__varies	-9957
__scent	-9958
__thinking	-9959
__native	-9960
__treating	-9961
__also	-9962
__terribly	-9963
__cambridge	-9964
__telephoned	-9965
__8,000	-9966
__vague	-9967
__restless	-9968
__received	-9969
__competent	-9970
__lunar	-9971
__pub	-9972
__basis	-9973
__chettri	-9974
__firm	-9975
__prison	-9976
__mooring	-9977
__lasted	-9978
__seventh	-9979
__decode	-9980
__savings	-9981
__stereos	-9982
__freeze	-9983
__shopping	-9984
__antifreeze	-9985
__bush	-9986
__subject	-9987
__cola	-9988
__hots	-9989
__parts	-9990
__tradition	-9991
__preaching	-9992
__mail	-9993
__doesn	-9994
__stunned	-9995
__articles	-9996
__avenue	-9997
__under	-9998
__certificate	-9999
__extra	-10000
__nametag	-10001
__house	-10002
__airport	-10003
__prompt	-10004
__beds	-10005
__infection	-10006
__mangoes	-10007
__decorating	-10008
__load	-10009
__chris	-10010
__reconfirm	-10011
__resumes	-10012
__title	-10013
__effort	-10014
__distinctive	-10015
__investment	-10016
__ex-girlfriend	-10017
__cuisines	-10018
__courageous	-10019
__during	-10020
__minor	-10021
__fascinating	-10022
__helpful	-10023
__volkswagen	-10024
__hospital	-10025
__air	-10026
__coke	-10027
__forrest	-10028
__extracurricular	-10029
__nerd	-10030
__arresting	-10031
__wheat	-10032
__insensitive	-10033
__carrot	-10034
__to	-10035
__spark	-10036
__sometimes	-10037
__appealing	-10038
__helped	-10039
__entail	-10040
__prominent	-10041
__fireworks	-10042
__p	-10043
__database	-10044
__electric	-10045
__1433	-10046
__fading	-10047
__dongcheng	-10048
__biography	-10049
__9:36	-10050
__nine	-10051
__deceived	-10052
__stuart	-10053
__messaging	-10054
__discussion	-10055
__lavish	-10056
__capable	-10057
__robbers	-10058
__looting	-10059
__pray	-10060
__flannel	-10061
__knowing	-10062
__upscale	-10063
__dance	-10064
__distribution	-10065
__skip	-10066
__instruments	-10067
